conv_0_param_0 6.115877 4.938032 5.350889 3.078788 12.296520 5.070493 8.315089 9.473193 3.350371 6.835997 10.487741 4.505543 3.306753 28.369982 3.745622 9.906155 
conv_1_param_0 119.529411 39.941032 68.338409 229.361557 47.741558 91.197754 68.626915 376.133057 72.490524 461.982239 100.734314 184.203964 399.840118 36.084351 331.966827 88.048744 51.443039 55.011845 79.008507 151.042969 88.830605 331.543671 393.488647 134.070099 227.754822 115.290779 319.921265 395.884308 196.150833 69.321960 98.670715 141.433380 
conv_2_param_0 405.449738 398.309357 259.059753 91.841805 106.161636 290.123810 133.588089 117.054909 145.712051 138.422562 195.708054 72.369507 126.876099 179.500351 110.210167 229.361557 413.836121 102.319435 143.699448 91.712273 163.582397 180.121887 416.486786 171.680527 384.189056 167.912201 458.723114 107.123558 295.060699 193.236252 344.042328 332.816376 
conv_3_param_0 253.192429 402.140930 379.599396 487.900085 602.495850 449.870697 817.222839 530.171204 
conv_4_param_0 2.003029 1.246231 1.509893 1.498489 1.616952 2.500315 1.514504 2.814184 0.825291 1.704467 1.124079 1.647840 1.711820 2.921944 2.532227 2.366130 
conv_5_param_0 406.717743 189.851089 224.996536 180.999298 214.070786 392.597748 119.091576 168.455963 450.772949 108.103073 236.666061 168.565140 226.367279 215.311264 110.962456 341.557465 283.174744 214.955368 205.284927 517.346619 167.156815 504.550934 291.260925 367.107971 173.166443 148.202850 396.185822 243.535583 138.643921 216.927444 323.502502 146.863922 101.283485 323.905365 196.893265 214.777863 473.332123 150.692932 160.850952 188.338882 378.321442 351.718719 151.747955 231.402130 387.624451 220.794571 832.307190 320.908081 392.006042 137.981964 189.160721 448.055115 230.786163 204.477982 549.885864 213.193436 215.668320 222.304276 728.560242 249.134094 302.085938 211.632217 138.422562 262.193542 
conv_6_param_0 2588.020020 795.400635 810.899475 877.220886 735.253723 928.914307 1615.503052 828.331238 1723.917114 952.732605 978.724365 949.255493 1267.215576 815.347961 945.803650 1503.445068 1285.218018 1745.610718 2612.389160 1951.939941 2554.656738 1872.878540 3028.774414 832.307190 2171.991699 1016.993164 2698.791260 2062.208008 1335.537842 947.526428 1338.114502 919.879761 1626.870972 2463.905273 2042.973022 1524.372192 711.130554 1680.749634 1407.826782 1003.263245 2076.614746 2304.283447 2572.024658 1459.164062 1198.599121 1492.659912 995.582764 1793.765503 1839.759521 1089.407349 1032.639160 1629.418945 987.081604 1953.772827 2589.630371 823.088623 2405.512207 834.979126 942.376831 940.672668 2024.093384 633.607788 828.991211 2604.215332 
conv_7_param_0 430.979279 145.223892 171.228439 225.581955 234.109818 85.501640 168.238037 160.652252 382.213074 313.368683 138.940170 118.548767 194.974518 267.588470 288.995544 94.374458 193.812225 312.991577 127.685814 160.950500 158.305542 268.140198 87.456627 185.385605 387.335815 127.062042 72.571426 111.533447 165.035538 188.202606 323.301422 130.373932 316.803894 750.096619 250.574188 509.742279 230.581558 306.536255 396.185822 430.266327 561.459229 340.662750 549.885864 326.139191 337.567810 460.754639 554.280212 190.128662 452.734558 448.441376 372.630371 226.959854 425.340973 483.449829 313.557556 665.632751 282.866760 234.743683 375.048309 255.748276 263.789032 320.512634 478.557495 298.789215 
conv_8_param_0 122.800774 73.227219 144.537277 132.129028 47.951660 88.300415 134.224106 97.899765 44.088890 77.471626 47.807228 120.356400 50.994377 128.000000 83.045128 65.927307 
conv_9_param_0 46.579605 103.653877 32.342335 63.424576 75.491081 61.879143 70.268951 74.823807 60.064335 52.469421 62.121330 38.524273 51.407288 75.446228 86.495911 60.754066 61.281853 40.106129 103.484924 73.694717 59.279179 92.279068 72.268639 81.134827 78.965172 29.230202 64.982597 94.476189 30.729914 72.063560 56.233837 28.166815 
conv_10_param_0 218.751892 219.861374 295.228149 235.380997 258.159790 299.477264 160.950500 199.154678 126.629013 242.626862 243.080368 202.566971 372.363647 319.332092 207.413071 211.977173 193.812225 304.205841 145.630463 133.109512 184.465256 359.496887 249.852066 428.141571 264.998474 248.183212 220.420334 232.436096 284.724670 271.924713 149.223175 207.082809 133.177673 259.836151 220.047379 241.724915 305.815399 319.136200 110.679146 242.626862 268.833069 524.651550 489.822968 447.284607 206.589355 277.880341 225.973938 172.821259 268.416931 191.387787 328.819214 348.654144 263.655334 223.450165 409.922760 267.313477 157.347855 226.367279 217.108521 391.121796 392.894257 317.577545 281.489166 201.624802 246.770401 291.260925 141.818970 191.811203 441.589142 478.557495 194.682632 156.873337 211.804565 378.046509 204.156982 296.913239 235.168167 263.789032 221.735718 159.080124 267.588470 259.447388 219.861374 270.792297 311.119629 188.748917 157.633942 345.413025 285.192993 304.919098 165.560791 475.061188 224.802078 217.108521 253.752197 211.288376 222.304276 170.890930 236.450912 234.955734 551.927856 213.718979 162.255768 294.059906 303.673096 396.487793 199.920059 240.384476 250.574188 273.641235 216.927444 254.746323 243.535583 215.847305 323.905365 220.233704 274.507660 253.258026 178.883087 150.344513 176.216797 228.756378 143.540833 198.546570 308.719299 190.128662 161.851898 148.287338 
conv_11_param_0 504.062012 539.898315 558.145935 325.323334 461.163116 537.388428 524.122925 487.984985 550.176636 514.023743 907.047974 830.977661 952.732605 791.768616 604.171875 896.110229 455.111115 586.131836 841.054138 454.316162 936.439270 486.160736 805.874512 761.628113 402.003082 886.942871 508.000000 592.473816 1240.768066 632.068054 584.485413 481.213684 399.533020 534.352356 920.693787 624.105591 828.331238 481.659271 821.139709 966.899658 561.762390 433.854889 584.157227 565.118958 448.055115 889.217102 542.431702 941.523987 848.600342 342.231567 576.070862 1047.718018 503.574066 435.671692 418.497192 596.892700 1225.422852 525.977783 518.119507 587.124146 339.550903 478.998169 893.800659 1207.642456 373.701141 571.012085 1048.245850 855.578918 668.197815 499.224579 196.003021 577.670166 679.101807 642.212341 590.791626 635.155090 628.630798 587.124146 1091.693604 543.565308 854.174072 554.575684 938.974731 910.222229 517.604004 711.130554 1067.060547 758.850464 1255.744141 510.242279 747.939636 1082.605591 444.228851 666.485596 498.745911 1135.170776 957.996338 463.216370 617.438599 799.066040 415.157227 420.187408 641.025269 502.600952 859.111450 1028.555664 524.916260 339.550903 141.126419 544.418640 788.767273 710.159729 370.507111 591.127258 465.704559 782.832214 753.355530 443.471436 590.456299 582.521851 515.552002 504.550934 893.033447 679.545410 609.838196 303.495911 584.157227 400.455750 
conv_12_param_0 364.791016 372.630371 141.433380 322.900055 244.681091 203.199997 187.659454 255.622604 140.897079 213.894730 205.935074 269.669250 299.649780 163.376877 203.041367 257.903809 309.453888 216.386017 224.802078 451.163910 285.976898 351.243744 409.600006 181.758209 225.386475 221.924911 292.078613 253.504868 472.901825 320.315277 281.032959 208.577393 165.350281 279.372711 278.923309 235.807800 564.199585 448.828308 198.092911 255.246323 187.254135 173.051224 214.777863 151.747955 201.937881 278.475372 278.475372 372.363647 337.348907 312.052795 165.560791 418.834137 378.596802 321.503082 183.943420 190.686218 252.765793 108.103073 290.123810 327.370667 336.911926 185.915649 234.532013 266.355347 390.241547 468.641449 315.076935 490.284637 426.037689 413.178711 131.961441 397.700317 245.142319 458.318939 304.562073 445.369873 497.315491 280.275848 297.933563 271.215851 202.566971 458.318939 119.310089 357.520264 359.248627 156.307693 687.175720 356.052032 432.772034 210.263535 216.386017 207.744415 431.336639 385.899109 403.249603 233.060928 136.318665 268.694214 582.521851 350.533691 168.129288 270.651398 349.826508 203.358871 345.642517 259.059753 358.258942 493.072998 367.367218 177.782639 184.727280 587.787598 218.936020 196.893265 259.966003 241.500458 347.489655 332.603577 473.332123 351.956696 327.783234 362.755920 488.443207 293.727844 308.719299 386.472504 195.267273 259.318054 
conv_13_param_0 514.532166 442.340149 366.849091 346.563629 393.191223 584.157227 347.026031 394.682861 273.497375 276.110413 321.106171 280.124939 301.735504 177.904236 388.202972 543.565308 515.552002 455.509644 334.743896 716.517883 377.497833 489.822968 420.527069 204.638870 259.576843 523.331970 301.735504 436.402679 330.071075 393.786530 386.759857 749.016541 
conv_14_param_0 57.979908 104.249588 40.335449 63.903374 98.126740 40.284264 72.599197 51.996723 38.618004 59.725307 46.613804 54.032341 40.386768 56.233837 66.098907 43.247955 36.783314 35.627384 69.121391 83.757256 25.374901 53.351261 63.015385 100.455696 41.441254 93.090912 35.929825 49.177383 41.441254 62.921703 81.134827 57.663940 
conv_15_param_0 87.751213 74.341919 129.501282 44.366177 144.127121 186.866821 99.277557 42.523777 88.794403 123.758286 167.625076 121.975021 149.647614 100.059891 134.651108 101.176094 162.581299 74.867928 153.445312 135.224701 101.580803 119.563087 108.805481 111.873131 106.434196 111.382454 38.361328 117.570374 120.242424 116.491745 90.117813 162.269653 
conv_16_param_0 119.114449 84.313416 115.748405 140.072815 94.126022 94.828979 128.518219 135.730621 126.030769 187.973358 125.037910 98.737167 115.014496 58.192486 96.193939 97.899765 62.797230 59.003719 136.680298 75.089294 159.018158 80.773537 107.972786 50.749802 142.190369 74.385475 144.208969 183.094452 155.132553 95.975815 53.261745 105.637268 
conv_17_param_0 50.994377 88.361862 52.210526 29.890772 77.330086 92.145142 38.594528 69.882225 69.959229 89.482735 92.818710 92.011597 74.647858 55.887325 88.300415 69.575890 54.683891 59.445694 90.245911 43.664375 110.510010 64.684669 63.203583 62.518955 60.812260 87.449036 46.240349 58.730804 59.669174 121.508133 55.789104 74.429077 
conv_18_param_0 150.084244 218.751892 41.548882 218.568069 234.320724 232.644012 109.284035 180.371704 146.863922 194.246460 81.279999 199.307281 239.940964 56.839161 149.223175 224.027557 150.431458 192.094528 194.682632 246.303024 209.754837 68.159332 177.056503 71.454948 250.574188 147.781815 205.609482 110.679146 135.114807 155.281189 265.810944 140.744583 
conv_19_param_0 407.673981 207.578613 465.288025 364.280121 467.798553 347.721924 404.503876 367.626862 314.695709 400.764252 552.220825 283.947601 475.495422 278.773834 223.258362 290.447784 258.416290 331.755096 422.920319 364.791016 494.479095 369.980072 412.523407 325.526917 683.114929 235.807800 387.335815 656.393677 136.676819 367.107971 235.168167 263.388367 311.119629 368.669037 549.305176 432.412292 438.610443 158.982880 409.277740 227.356644 444.228851 262.458130 234.320724 300.515320 266.491791 218.751892 395.583282 392.006042 406.399994 230.991119 262.988892 254.497070 251.543518 287.876038 379.979553 258.031738 268.002075 381.932465 288.514709 313.936035 318.940521 580.247620 191.528717 322.100311 
conv_20_param_0 260.486725 213.193436 637.490173 288.035431 254.621628 488.443207 585.142883 442.340149 518.119507 298.446350 252.765793 418.834137 371.035675 310.562378 416.153595 480.325012 306.355713 231.814621 269.949158 316.803894 233.479355 265.133545 327.989899 333.456421 410.246063 397.093140 359.994476 784.603333 381.932465 331.121582 712.591797 402.313995 228.354691 595.526062 685.816772 632.836975 329.443939 321.901001 556.652771 362.250702 255.748276 864.824585 398.920258 322.299866 370.243408 469.911469 766.114868 409.922760 767.811096 500.666016 742.071350 643.403809 302.965637 316.418488 246.770401 418.160767 328.196838 347.026031 164.617722 515.041565 567.275879 179.997238 424.300171 402.937256 288.674805 518.119507 458.318939 349.591400 544.703674 527.310669 511.245209 188.202606 520.973450 166.728210 769.514771 429.201324 405.133942 329.652710 330.071075 239.278748 424.993469 754.448181 279.222748 338.887299 143.303589 458.318939 552.220825 410.894165 245.373581 379.702179 649.833862 328.819214 486.615540 358.012390 435.671692 382.213074 573.530334 343.134552 323.703796 366.849091 354.113007 241.276443 347.954529 376.950714 389.365265 325.934845 358.753113 409.922760 483.899536 735.253723 353.872101 500.184601 347.026031 410.894165 210.093704 387.335815 357.274719 577.349609 318.745087 296.068298 422.920319 326.139191 436.769104 793.580444 289.317017 600.683594 201.781219 407.673981 
conv_21_param_0 861.245056 708.708435 445.369873 1095.717773 1294.815186 611.271423 1529.976440 968.700195 1152.141724 887.699646 749.016541 872.073792 809.637329 808.379150 540.178589 525.711975 855.578918 1323.643799 1427.138550 503.087036 586.793030 690.826050 872.073792 784.603333 368.407928 1027.539795 820.492126 728.050415 1024.504150 834.309570 363.516418 710.644836 759.404358 1328.715210 1012.046692 625.606750 955.357239 587.124146 711.130554 1350.271240 1360.868530 782.243591 1106.791504 656.808105 1204.148193 1214.692383 914.221436 766.679443 273.785278 832.973572 704.389954 832.973572 1495.879272 1371.633545 1540.168823 538.222473 994.630981 345.183807 826.357422 802.146484 693.127258 870.614197 995.582764 1341.565430 1025.008911 735.773682 875.744080 761.070984 867.709778 782.243591 1077.002075 681.325500 686.722107 960.650024 1207.642456 717.506226 765.551147 334.098907 510.994110 360.743408 639.056519 692.665771 988.018982 747.939636 1142.024170 287.716827 897.656616 346.794678 1051.955566 869.159546 1245.968872 588.785522 794.792969 1129.011353 581.544983 877.961182 653.097290 958.879272 681.771973 532.438049 834.309570 357.520264 502.600952 1054.621338 644.599731 1389.958618 631.684265 1040.904419 788.169678 794.186279 669.057251 1402.134766 768.378113 1070.904785 883.178284 1037.789551 931.409119 665.207153 640.236328 759.959106 983.349731 869.886292 808.379150 712.591797 1085.429321 1172.263672 1222.542847 919.067139 337.130280 752.810425 921.509277 918.255981 727.541260 347.954529 816.627930 873.538208 1023.496338 878.702698 1216.112183 823.088623 261.271729 349.356628 494.479095 737.338074 875.744080 1004.231689 359.496887 562.673889 1526.609009 1122.312866 1145.166748 582.195862 691.744690 1065.967163 1156.624756 899.208313 460.346893 815.347961 830.314453 287.716827 1046.663940 1198.599121 491.210571 1019.984314 1066.513550 1136.410645 1142.651245 772.945007 1545.890015 436.036896 584.157227 955.357239 742.071350 878.702698 1287.604004 899.986145 836.321533 1068.704712 795.400635 1195.156860 418.160767 961.537903 1075.332275 720.487549 880.189514 1795.313232 815.987427 513.262939 1343.297607 1140.146851 660.561279 1063.787354 1508.896362 675.135620 1115.693237 542.714661 864.824585 384.473022 938.974731 799.066040 862.673279 688.084656 823.088623 1296.428711 743.662598 887.699646 990.841919 947.526428 255.622604 1235.610474 725.006287 1541.309570 1163.740479 909.426575 518.119507 923.144653 1380.735229 953.605896 554.575684 428.141571 228.957748 1110.335083 688.540039 1292.402466 952.732605 866.986694 956.235291 647.005005 1652.714844 1218.248291 486.615540 1365.333374 973.231079 1866.159668 1050.362427 1359.979126 847.908691 842.416199 1461.213501 933.917419 1389.958618 715.532349 775.248901 836.321533 578.956055 913.418762 510.994110 817.269470 1190.370728 482.105652 666.912842 738.909119 898.431763 630.918152 843.782654 858.402649 
conv_22_param_0 378.321442 186.984909 338.006500 411.218964 307.079102 484.801483 558.145935 432.053162 458.723114 269.529541 301.385864 254.621628 274.507660 513.009888 312.803375 401.382721 329.861755 321.701904 186.582489 277.880341 370.771210 256.631470 319.921265 380.814056 444.608551 616.341248 436.769104 355.565277 191.528717 388.202972 251.543518 235.380997 350.770050 272.494507 546.133362 355.565277 373.164978 309.638092 351.718719 437.872040 557.249084 417.154785 328.819214 306.897949 282.099792 193.956741 253.504868 374.238861 356.052032 449.604156 230.786163 489.362183 373.432892 322.900055 432.053162 382.213074 363.262573 440.094757 335.175262 233.689133 437.872040 317.383759 421.549438 497.791382 589.786865 243.307770 475.930481 516.063477 298.446350 262.988892 344.042328 123.973305 233.899277 301.910614 354.595764 209.080383 459.127991 296.743866 320.512634 402.937256 474.627747 328.404053 375.861267 385.042206 194.246460 464.457153 589.452698 367.107971 420.867310 395.282684 479.439636 562.978333 372.363647 490.747162 529.996948 418.497192 604.874390 519.153687 370.771210 310.562378 358.753113 198.850159 395.583282 362.250702 548.436462 380.257324 229.159470 281.032959 476.366302 291.097931 260.486725 296.574677 307.988159 235.807800 250.092300 580.247620 312.427643 265.539551 271.074524 333.456421 251.057922 150.518524 486.615540 693.127258 319.528259 348.654144 383.905548 648.618469 435.307098 565.426086 312.803375 335.391357 338.887299 182.267700 409.922760 358.753113 704.867188 690.367615 398.309357 337.130280 343.814941 658.887878 683.563721 389.656921 248.895691 544.989014 315.076935 318.745087 325.119995 365.817169 363.262573 495.893219 618.907776 288.035431 369.192322 270.651398 639.056519 303.850464 221.546844 338.666656 484.350098 498.268188 262.988892 367.886841 527.845764 554.871460 529.188171 446.133789 176.695648 556.950745 511.245209 368.669037 243.080368 159.470261 386.759857 264.325195 253.504868 278.773834 306.716980 580.895569 316.226135 292.078613 201.781219 682.666687 300.341797 338.666656 747.402283 271.782654 213.543518 534.626953 384.757385 292.406982 314.125610 450.382690 295.060699 369.980072 229.563995 336.693848 325.934845 342.231567 316.418488 386.185608 513.769897 447.284607 382.775574 462.392883 327.164795 331.543671 235.594208 450.382690 330.700562 302.613159 465.288025 411.218964 533.256775 381.652252 300.341797 218.568069 261.665985 595.185364 512.757019 299.477264 472.901825 590.791626 490.747162 230.991119 296.068298 392.894257 437.503784 447.284607 433.132385 276.403839 697.308289 116.426140 456.709381 678.658813 340.439789 283.792694 492.606049 457.110718 305.097961 479.439636 361.998596 346.332886 419.509674 432.053162 142.362335 414.495605 310.747894 132.095474 399.840118 681.771973 714.059021 447.669525 363.262573 409.600006 
conv_23_param_0 598.609924 815.347961 458.318939 386.759857 382.775574 184.727280 522.806030 288.674805 610.912537 787.573059 304.205841 737.861023 364.535400 276.110413 576.709534 664.357605 651.461487 1124.131836 762.186096 230.173447 586.462219 243.763824 197.641342 480.325012 520.973450 214.247116 779.313843 220.607300 512.252075 405.449738 519.412903 189.574341 762.744873 487.984985 497.791382 631.684265 469.911469 648.618469 280.881195 494.949585 745.260742 574.797791 219.490295 461.163116 365.817169 385.042206 347.257690 253.011673 214.070786 453.523987 587.787598 605.931274 614.158203 795.400635 675.135620 274.073761 658.470886 549.885864 317.965759 936.439270 233.060928 390.534546 558.145935 577.349609 
conv_24_param_0 128.193848 61.638836 52.039345 99.045242 48.243160 60.987511 84.313416 134.295074 86.143829 78.187195 149.735855 71.495499 89.231201 45.478512 43.634365 73.524033 43.905949 87.148933 89.799149 84.090065 69.499725 143.963715 85.910690 78.916100 79.608780 38.547661 109.367783 54.449398 36.031780 67.289879 56.685715 119.114449 31.791687 70.542221 49.139320 53.986393 62.457451 78.043022 32.000000 117.136528 59.781544 48.024204 35.687466 102.400002 85.276024 88.423401 122.682129 95.184410 73.142860 80.415451 31.167402 29.722847 52.339653 68.450676 109.651123 90.245911 69.272232 56.084805 49.911949 71.254768 49.025482 54.683891 64.553123 58.785187 
conv_25_param_0 180.620193 153.538086 108.526497 192.679825 285.821045 267.458649 124.669609 87.690605 160.932831 188.252045 69.920708 127.806747 243.482269 206.297318 184.692368 196.862015 148.423141 58.192486 155.227386 126.093346 303.045349 156.857315 149.647614 205.795792 175.502426 136.975189 86.673035 79.409630 227.555557 132.404587 132.129028 154.378113 166.854141 153.630981 213.764313 190.368820 111.480247 180.620193 115.432724 142.830139 146.538956 144.127121 173.583054 135.368866 33.644939 213.764313 164.903900 69.121391 157.148514 161.649902 158.521851 47.273270 202.675186 341.792725 194.301453 135.803207 111.090111 81.604111 132.889587 227.964096 168.180130 181.653793 134.651108 157.440796 
conv_26_param_0 197.167709 94.335808 243.482269 236.454376 217.238663 230.237534 253.318710 217.238663 168.626831 286.789398 107.515663 220.827820 189.941666 134.153198 267.881866 201.709290 229.613022 359.705383 284.380737 360.471252 258.738678 200.435669 280.920349 180.877487 233.841614 240.257339 154.754425 258.081299 321.254913 144.127121 155.512558 346.692139 244.655106 295.636780 157.245819 467.252991 350.520355 188.531555 232.344009 215.762100 256.129089 247.275558 169.867554 277.694916 332.615601 161.444366 231.496811 457.983765 221.598602 188.252045 192.826126 770.134949 196.557281 225.735107 273.360596 230.865448 215.578949 166.963837 372.090851 416.998352 81.447083 146.033356 269.016937 391.297394 
conv_27_param_0 267.740631 200.435669 145.781860 102.981346 102.814575 100.934814 72.268639 215.396103 129.501282 110.799301 111.971779 84.201591 92.346184 164.051682 165.011047 141.006104 174.417587 58.352940 195.799530 76.630051 109.745895 185.637421 104.593079 209.877686 196.709534 151.794388 34.392200 107.606781 190.797897 92.683212 133.448242 160.121063 180.620193 190.083832 111.873131 297.890900 182.436783 120.699623 95.470680 133.518402 188.811890 155.894409 175.988907 155.227386 36.571430 124.547325 94.758209 59.168686 85.852600 104.765678 121.857964 47.663662 126.155983 230.446457 82.720520 91.812004 96.633179 117.353050 118.891388 155.798767 134.437271 240.941177 208.157379 151.342072 
conv_28_param_0 122.455742 155.932861 221.546844 193.667908 184.990036 175.385025 241.500458 165.560791 192.806519 237.965240 193.667908 202.882996 129.401001 198.698242 165.455475 97.560387 237.747711 180.622223 215.311264 295.395813 195.413971 171.341232 200.382126 148.966782 213.718979 184.334518 187.930634 188.475357 237.747711 218.936020 180.747742 327.370667 130.701508 268.972076 144.257355 244.911484 117.054909 78.578850 145.957352 149.738632 225.191345 213.018845 145.957352 211.804565 245.373581 196.003021 190.546524 194.246460 252.520386 215.311264 245.605286 192.094528 186.716446 260.878632 174.913254 149.137619 185.915649 224.027557 139.163193 177.782639 141.741684 141.049896 167.803864 189.436264 
conv_29_param_0 625.606750 632.836975 566.966736 539.618286 565.118958 749.556213 1124.739502 633.993896 696.841248 875.744080 580.247620 818.555481 299.132843 490.284637 613.795898 597.235352 623.357727 528.650391 696.374817 639.842529 600.683594 484.350098 769.514771 667.768921 738.909119 594.845032 732.149170 1049.832520 674.260559 627.115112 635.931519 639.056519 494.009491 407.035980 471.188416 677.333313 750.637817 737.338074 1036.239014 532.983582 649.833862 717.506226 518.119507 632.068054 777.566528 704.389954 613.072510 943.231201 469.064026 704.389954 531.621887 784.603333 720.986816 817.911926 498.268188 728.050415 357.520264 975.969971 1161.791138 699.182800 438.980591 669.487793 785.788513 594.845032 597.578430 543.565308 582.195862 680.879578 391.416107 718.993774 478.998169 963.318542 562.978333 912.617554 643.403809 206.098251 624.480164 591.463318 613.433960 909.426575 600.336975 487.527649 557.547668 396.185822 1039.864014 797.840515 752.810425 645.800110 427.087036 707.263062 992.732849 578.312378 594.165649 590.791626 638.664185 1107.970215 992.732849 755.543945 264.863556 487.527649 590.121399 626.360046 596.550476 712.591797 580.895569 800.911499 468.219635 558.745422 776.985840 593.826477 629.772400 972.321472 595.867126 592.136597 461.982239 416.486786 849.293091 796.618713 532.165710 276.550781 524.916260 447.284607 656.808105 728.560242 766.679443 774.671631 546.420166 587.124146 
conv_30_param_0 630.535767 360.993744 886.187378 304.740479 399.533020 512.000000 797.229126 776.405945 1639.691040 1022.993103 460.754639 629.391418 1115.693237 556.652771 880.189514 798.452820 735.773682 1085.995850 829.652283 594.505127 398.309357 676.013000 581.544983 339.329407 339.994781 535.452393 1037.789551 723.493713 849.986938 539.059082 468.219635 397.396484 559.045654 486.160736 654.741333 1059.993896 786.977295 916.637878 653.507507 354.837646 373.432892 417.824890 605.931274 464.872192 337.567810 264.728760 440.094757 717.506226 1082.042603 534.078003 734.215942 825.701599 907.839417 1001.332031 662.243164 285.662811 725.006287 1226.867920 364.535400 499.704132 528.919189 813.435486 734.734436 343.134552 493.540802 845.840637 914.221436 431.694611 1716.805298 759.959106 911.817688 935.597107 642.212341 663.087341 718.993774 271.924713 443.093689 620.014282 547.570557 581.220093 543.565308 502.115845 836.321533 967.799072 1237.815552 515.552002 477.240356 657.638428 461.572327 669.057251 639.842529 609.124146 471.615601 201.312698 879.445496 582.521851 459.127991 1072.560791 838.343262 426.037689 704.389954 716.024780 669.057251 307.805908 583.501953 313.557556 753.901428 593.826477 349.122162 611.630798 337.567810 713.080200 869.159546 701.540100 658.887878 771.798218 925.608521 583.829407 335.824402 684.463135 486.615540 862.673279 766.679443 1257.261597 512.000000 814.709473 401.382721 431.694611 792.975586 815.987427 1280.472656 509.742279 851.378052 595.867126 419.171631 1089.978027 537.944153 446.900330 250.333008 501.148376 616.706604 253.011673 1060.534180 827.014282 1098.030640 1202.061279 928.914307 882.429199 447.284607 1161.142822 448.828308 690.367615 839.696533 666.058899 705.345093 672.952148 680.434265 310.562378 392.301666 1123.524780 457.915497 1008.124023 519.153687 779.313843 495.420959 618.539856 527.845764 644.599731 516.319580 457.915497 894.569214 905.469116 147.363174 805.874512 557.547668 499.704132 580.571411 839.019348 510.492645 904.681763 416.153595 601.725830 876.481873 754.995667 722.488892 639.842529 807.751526 545.560547 599.644958 416.820526 621.867310 470.761993 688.084656 1095.141113 787.573059 768.378113 599.990784 950.990845 504.550934 688.084656 1057.838379 479.881927 623.731445 471.188416 469.064026 402.937256 485.253723 834.979126 542.997925 702.013489 826.357422 935.597107 567.895203 569.449341 854.174072 396.185822 758.297363 708.226013 391.710846 503.087036 363.516418 941.523987 398.920258 339.994781 1038.307373 336.693848 819.845520 283.792694 474.627747 678.658813 629.772400 1162.440186 529.457520 728.560242 475.930481 802.146484 519.412903 583.829407 885.433167 472.472290 511.245209 987.081604 832.973572 562.978333 845.840637 397.093140 784.012085 768.946045 472.043549 609.838196 774.671631 514.277832 417.489563 330.490479 609.480957 710.159729 
conv_31_param_0 297.082825 327.576813 398.614563 424.646545 186.984909 312.427643 335.175262 286.765167 355.808472 386.759857 481.659271 428.141571 278.773834 285.976898 471.188416 383.622406 380.535492 376.405212 293.231110 461.982239 224.414154 271.640717 368.930511 410.246063 333.456421 511.496552 359.248627 158.113068 208.410263 227.555557 113.085220 317.771545 356.295898 170.666672 385.327393 349.826508 455.908844 298.960907 388.492920 357.029510 327.783234 374.508270 233.479355 435.671692 279.823547 368.669037 253.752197 286.134216 436.402679 339.108215 356.052032 304.028046 459.127991 324.714111 214.777863 312.991577 254.372620 344.954895 457.110718 475.495422 221.170074 421.208099 395.583282 420.527069 306.175385 85.277374 284.880615 203.517990 420.187408 95.064331 428.494232 121.996246 365.047028 327.989899 239.278748 299.822479 399.533020 361.746857 360.493408 269.389954 507.009735 541.021301 500.666016 162.865372 308.902618 156.590012 257.776001 437.503784 335.824402 542.714661 371.565704 314.125610 305.815399 134.416534 339.329407 243.992493 240.606842 262.723236 273.497375 383.057434 445.751495 387.913483 424.300171 358.258942 358.753113 352.672546 350.533691 416.153595 321.901001 467.378265 402.625397 319.332092 382.494110 475.930481 239.719818 314.886200 397.396484 402.003082 312.991577 276.110413 236.666061 453.523987 424.646545 234.320724 363.009064 364.025208 355.322418 186.984909 
conv_32_param_0 1650.093628 1461.213501 836.994385 938.974731 1981.683838 754.995667 1036.755371 447.669525 5923.894531 1502.359619 2920.376221 1083.733276 1559.796143 2178.814697 726.018127 772.371216 787.573059 1843.018555 781.655884 1486.262817 1726.778442 972.321472 1206.242310 1221.108032 1693.057739 665.207153 814.709473 1985.465698 1399.306030 1397.426514 947.526428 929.744385 1180.912598 2778.061523 1697.200684 2041.970581 1661.955322 2081.808838 933.917419 323.703796 961.537903 1286.012329 1966.699463 719.988953 673.823853 600.683594 1962.988647 701.067383 1719.642944 853.473328 1522.141968 1287.604004 733.698181 1544.742432 1148.960815 1019.984314 1404.026978 2607.478760 1458.141602 1152.141724 877.961182 1889.889160 620.754150 1659.304565 1130.852173 1225.422852 1102.685791 1430.081055 299.132843 1589.585938 1968.560059 1300.479980 1795.313232 1404.974976 1729.649170 930.576050 1667.282104 767.244812 2654.040771 1378.905273 1450.012573 836.321533 1747.076416 1478.868530 2825.211182 912.617554 2491.937744 1421.289673 576.070862 1153.419067 926.432739 2069.386475 716.517883 1834.892456 1493.731567 2062.208008 1386.254517 849.986938 640.236328 860.532654 1987.361938 2142.912354 1657.982422 918.255981 2018.203735 250.092300 1854.516968 624.480164 3903.879883 1663.283813 1953.772827 1493.731567 1364.437988 1409.734375 1375.259766 2033.986328 1907.211792 460.346893 1302.922974 1090.549316 2779.917236 1784.535156 2192.590088 2157.354004 1197.909058 1968.560059 1032.126953 829.652283 1280.472656 1781.479492 1326.174683 601.725830 377.497833 1569.206665 1275.762085 2028.038940 1445.981934 2384.834473 1177.571045 1926.637085 2472.689209 417.154785 2766.978760 1569.206665 1961.138550 658.887878 1274.980347 1209.748779 1540.168823 2879.955811 1096.872925 1883.047974 1205.543457 2655.734619 1488.389160 928.085632 1333.825684 2056.094971 1378.905273 2945.177734 1482.028442 3326.567627 1308.659180 1578.731445 1076.444946 1072.560791 1358.203613 752.810425 1891.607300 564.812134 977.804504 1565.664429 2106.040527 1173.586060 1812.515625 836.994385 937.282898 3269.077881 641.025269 1303.739380 2042.973022 1651.403198 1557.461060 1233.413208 2134.121094 886.187378 1171.603638 491.210571 997.491821 1668.619141 1109.151367 2177.674561 1197.219849 1603.057007 1352.905029 1135.790405 1268.760986 2088.076172 1577.534546 1687.565308 2183.387207 1915.992676 1435.012451 1267.215576 1534.489624 1796.863525 1404.026978 2152.889893 1270.310181 1825.235107 1414.526123 657.223022 1611.749023 714.059021 1445.981934 1293.205688 1634.538940 1166.349731 3071.244385 696.841248 1089.407349 1998.816528 1229.768311 1068.704712 1168.970825 952.732605 807.751526 1912.470581 402.313995 1908.961426 3871.196289 1935.598145 1275.762085 1311.959595 1436.994507 1755.922363 1053.553467 1264.136108 2189.129883 966.001831 1123.524780 511.748169 1758.890991 861.245056 1926.637085 1912.470581 1478.868530 2539.070068 1876.256104 1306.194580 627.872070 1341.565430 1033.151978 861.958557 1784.535156 2101.785889 
conv_33_param_0 239.499084 458.723114 346.102448 336.693848 354.837646 376.405212 206.425400 382.775574 275.525421 289.317017 417.154785 372.630371 306.175385 246.303024 312.427643 247.710480 291.914703 206.098251 259.447388 168.129288 396.790222 389.074036 419.509674 397.396484 205.935074 280.578217 296.405701 342.456879 335.391357 269.669250 330.490479 341.333344 352.433594 236.881607 290.285706 289.156189 325.119995 316.226135 347.489655 263.655334 309.638092 298.446350 365.047028 290.772491 246.536499 305.995300 372.630371 416.153595 250.092300 254.996078 350.533691 427.087036 328.404053 283.328979 319.332092 326.753754 280.124939 371.300507 303.673096 439.351349 336.911926 384.189056 255.497055 247.239548 363.009064 365.047028 496.366425 208.912445 245.142319 340.662750 188.475357 327.576813 403.249603 228.555359 394.982544 350.533691 430.979279 263.789032 344.270020 336.041351 404.189575 276.550781 436.402679 459.533569 296.743866 208.243393 306.355713 144.337402 363.009064 436.402679 109.930687 311.492218 208.243393 346.102448 253.258026 339.994781 324.107178 330.280640 326.343781 215.489639 288.835083 402.313995 275.963928 243.763824 359.994476 456.709381 228.555359 289.478027 345.413025 375.048309 312.427643 353.391296 305.635712 408.313965 363.516418 287.398895 323.502502 250.333008 363.516418 373.164978 356.540100 272.494507 260.226105 328.196838 264.325195 347.954529 259.836151 249.372955 518.636108 501.148376 340.439789 454.713287 687.175720 265.946838 483.899536 319.136200 455.908844 287.398895 510.242279 464.457153 548.725708 376.405212 187.524155 440.467407 295.731659 407.035980 686.722107 261.534454 331.121582 250.574188 494.479095 95.343109 824.393005 261.929504 383.057434 484.350098 406.717743 371.300507 567.585388 697.776001 276.550781 184.596161 508.496582 280.881195 399.840118 225.973938 704.389954 120.974884 138.940170 254.746323 260.356354 385.613037 601.030640 431.694611 365.560089 184.727280 402.313995 184.858566 549.305176 182.651688 318.160248 238.839310 614.158203 574.797791 591.463318 783.421692 314.315399 423.264435 153.358490 164.721970 562.369751 282.713043 142.051331 195.708054 257.776001 189.989777 702.013489 598.609924 295.563629 808.379150 176.815765 713.080200 218.018448 479.881927 224.027557 155.096008 296.405701 135.607925 275.817596 789.965088 411.218964 272.923401 350.061920 276.845123 658.887878 187.794952 273.353638 581.870239 340.217133 862.673279 181.251572 476.802948 719.491028 271.498962 590.791626 644.599731 343.134552 272.351837 389.074036 262.061462 132.364380 373.969818 449.993073 151.130737 436.402679 443.093689 659.723511 429.555725 224.220688 398.920258 715.040527 734.734436 413.178711 314.125610 471.615601 590.456299 302.613159 1022.490417 636.320496 461.982239 519.153687 418.160767 345.642517 186.181824 365.560089 466.121857 
conv_34_param_0 402.003082 902.327820 248.420242 251.787033 489.822968 287.716827 333.670288 289.639191 193.092804 198.092911 498.268188 372.097290 369.980072 365.817169 254.000000 187.524155 238.620178 134.555618 320.118164 275.525421 263.121887 418.160767 325.526917 347.257690 402.003082 402.313995 231.402130 262.590607 309.269928 363.262573 309.453888 300.341797 414.826141 175.266846 330.490479 261.271729 349.826508 253.258026 339.994781 250.333008 227.356644 220.047379 473.332123 287.716827 391.416107 343.814941 279.823547 317.965759 254.000000 223.066895 372.897491 254.000000 354.837646 383.622406 204.638870 498.268188 352.911804 301.037048 209.585815 364.535400 222.494446 416.820526 331.966827 247.239548 243.763824 307.988159 324.916931 255.371628 309.086151 451.947876 289.478027 296.405701 160.355118 246.770401 788.169678 1758.890991 273.210083 131.961441 197.341431 312.803375 279.974152 108.013290 297.082825 312.615387 261.009521 216.566193 347.026031 277.880341 138.496277 273.353638 247.004745 323.502502 220.607300 297.933563 248.183212 257.776001 267.726196 436.769104 273.641235 223.642303 140.364807 282.099792 226.367279 200.691360 322.900055 342.456879 270.370056 262.061462 379.979553 445.751495 153.448975 316.996948 186.181824 162.154617 303.850464 222.684937 469.911469 286.449341 322.699738 302.085938 274.797668 298.104309 145.793716 240.384476 309.269928 266.902008 283.792694 246.770401 1100.935425 467.378265 414.826141 324.916931 521.757263 370.243408 487.527649 649.428223 368.669037 578.312378 543.565308 741.542419 332.178802 395.282684 309.453888 549.885864 414.165619 334.313629 648.214355 373.701141 331.755096 339.772705 514.786743 618.539856 574.163330 424.993469 420.187408 506.516052 782.243591 1113.901489 672.952148 540.740112 237.530594 310.007141 236.021774 241.500458 315.842133 185.650253 351.956696 325.934845 304.383850 376.133057 441.964325 571.639587 461.572327 324.916931 245.605286 348.420624 303.142181 199.460129 462.392883 269.809143 318.940521 339.550903 451.555542 727.032837 327.370667 277.287842 310.007141 276.992554 507.009735 254.497070 334.959442 448.441376 801.528503 702.487488 102.804741 774.095215 189.989777 636.320496 1377.992065 289.639191 1512.186035 176.216797 317.383759 170.890930 186.582489 150.084244 314.886200 227.954422 165.035538 232.021408 203.996857 1020.985291 214.955368 286.923340 268.972076 178.883087 258.416290 187.659454 260.226105 224.220688 559.647095 407.673981 302.613159 472.472290 327.370667 638.272400 276.110413 326.753754 189.851089 207.413071 162.967422 278.028870 205.935074 941.523987 138.422562 290.123810 370.243408 232.852280 335.824402 201.937881 306.175385 478.998169 232.228577 212.323273 224.414154 250.333008 2364.509033 2493.430908 694.515381 962.427368 1487.325195 165.350281 172.477448 247.474792 224.414154 146.039307 
convdw_210_param_0 179.500351 229.159470 130.439316 168.129288 115.393082 162.967422 133.519501 201.156998 232.228577 206.753571 225.191345 59.655045 98.820671 422.576752 226.564453 190.407028 224.996536 1191.734253 213.018845 193.523804 297.933563 153.358490 148.371933 179.006195 229.563995 203.358871 210.604050 248.657745 154.819046 190.128662 128.063019 261.403015 243.080368 89.318680 210.604050 210.263535 562.978333 210.433655 188.748917 218.751892 223.834763 103.212700 114.883392 165.983414 154.359650 130.308624 195.855423 132.973419 145.548965 206.098251 220.794571 169.223160 223.642303 156.120041 122.918716 213.718979 130.635864 199.002289 195.120773 306.536255 625.983154 187.794952 251.787033 170.219894 192.806519 207.578613 1116.291870 225.973938 397.396484 114.883392 65.680809 411.544312 55.198643 414.826141 374.778107 261.271729 557.547668 492.606049 537.666138 431.336639 398.004578 451.163910 494.009491 57.902046 387.047607 403.875763 472.901825 487.984985 461.982239 348.888000 339.772705 463.629242 246.070007 573.530334 232.644012 251.543518 313.557556 182.267700 510.492645 416.153595 459.127991 480.768951 544.989014 249.852066 386.759857 128.951904 260.878632 420.867310 410.894165 866.986694 494.949585 370.771210 294.226257 249.134094 338.666656 267.176178 334.743896 361.495483 68.302521 60.375114 120.638222 80.227020 75.346466 351.956696 488.902252 432.053162 318.160248 385.042206 
conv_35_param_0 691.285034 567.275879 761.070984 926.432739 852.075378 612.711426 950.990845 780.483093 648.214355 438.240936 822.437927 957.114990 815.347961 760.514648 994.630981 604.171875 755.543945 722.488892 656.393677 561.156433 851.378052 531.621887 521.234497 243.307770 581.544983 883.178284 772.371216 836.321533 700.123840 1025.514038 925.608521 927.258484 702.962158 589.118896 690.367615 342.908386 697.776001 436.769104 633.607788 186.448746 189.851089 574.480408 635.155090 502.600952 955.357239 934.756531 625.230774 550.467712 646.602844 1118.692505 443.849823 1065.967163 827.014282 624.480164 1057.838379 775.248901 993.680969 694.515381 573.530334 691.285034 1328.715210 1058.376343 701.067383 813.435486 699.653015 663.087341 586.793030 1138.275757 1035.208008 941.523987 717.011719 848.600342 788.169678 1051.423950 725.511841 559.647095 949.255493 1113.901489 684.013123 283.174744 562.673889 781.655884 823.740295 790.565369 966.899658 795.400635 819.200012 564.812134 632.452271 495.893219 522.806030 663.933655 758.850464 967.799072 1086.562866 634.380493 783.421692 832.973572 743.662598 655.566467 579.924194 1450.012573 266.902008 587.455688 469.487366 338.666656 795.400635 809.637329 1206.242310 759.959106 622.984436 872.073792 929.744385 602.074097 482.105652 896.882751 789.965088 1019.484558 665.632751 776.985840 805.874512 809.637329 993.680969 1040.904419 934.756531 1114.498169 689.452637 949.255493 
conv_36_param_0 615.976318 502.600952 667.340576 983.349731 311.492218 871.343384 1094.564941 318.745087 523.595398 521.757263 502.600952 428.494232 752.810425 536.280396 708.708435 680.434265 708.708435 516.832581 761.628113 903.111084 690.826050 845.840637 964.211304 834.979126 554.280212 1006.174072 504.550934 869.159546 965.105774 452.734558 668.197815 992.732849 912.617554 884.680298 708.708435 469.911469 527.043579 343.587860 821.139709 551.342896 610.195923 590.456299 787.573059 450.772949 486.160736 862.673279 577.349609 881.681335 712.104065 494.949585 475.930481 553.985107 745.794983 611.990601 782.243591 810.899475 719.988953 604.874390 923.964478 650.646667 686.722107 766.114868 1019.984314 905.469116 854.875916 805.250793 672.082703 626.360046 589.118896 486.160736 824.393005 708.226013 673.823853 939.822937 836.321533 799.066040 831.641907 768.946045 1007.148132 463.629242 629.772400 707.744202 509.992157 600.683594 669.918884 907.047974 561.762390 694.515381 927.258484 552.807678 564.505676 802.146484 1038.307373 609.838196 755.543945 787.573059 878.702698 731.634338 799.066040 370.507111 553.985107 671.648804 834.309570 498.745911 631.300964 720.986816 472.472290 521.234497 639.056519 1202.756104 779.313843 665.207153 1077.002075 390.534546 419.848267 793.580444 558.145935 668.197815 603.471008 439.351349 727.032837 401.382721 786.382446 637.881042 827.014282 723.997192 981.494324 483.449829 493.072998 1046.137817 722.990967 672.082703 770.654785 827.014282 906.257812 714.059021 1095.717773 457.110718 694.979309 924.785767 611.271423 759.959106 724.501404 723.493713 683.563721 978.724365 245.142319 693.589355 633.607788 479.439636 687.175720 882.429199 744.194580 558.145935 612.350769 650.646667 412.196503 626.360046 587.455688 994.630981 487.071167 735.773682 349.591400 594.845032 710.159729 838.343262 820.492126 1105.615356 747.402283 428.494232 817.269470 886.187378 444.608551 655.566467 1342.430908 840.374817 719.491028 962.427368 1144.536865 938.128052 907.047974 508.745239 768.378113 632.068054 742.601013 817.269470 459.939880 714.059021 911.019287 677.774597 1004.231689 457.512756 511.748169 875.744080 1199.981567 669.918884 694.515381 466.958710 657.223022 655.566467 298.275238 907.839417 1288.401245 896.882751 423.954346 613.795898 653.507507 801.528503 643.006165 843.782654 526.243774 566.657959 800.911499 862.673279 697.776001 925.608521 679.989563 633.607788 929.744385 822.437927 625.230774 515.041565 734.734436 732.664795 855.578918 943.231201 637.490173 568.205322 541.866638 565.118958 434.943146 735.773682 1031.104004 844.467529 729.582031 616.706604 452.734558 679.989563 407.993713 593.826477 596.208618 546.707275 818.555481 940.672668 759.959106 805.874512 756.093018 686.722107 720.986816 1107.380493 720.487549 792.975586 779.313843 836.994385 778.730530 757.745056 
conv_37_param_0 278.624542 241.052826 265.810944 297.592682 151.659470 306.536255 296.236908 231.814621 272.066956 216.927444 188.475357 377.771973 240.829636 287.876038 412.523407 147.029953 217.471573 217.471573 197.042419 361.746857 202.251938 310.007141 250.333008 346.563629 335.607727 180.246704 340.885986 206.918060 227.954422 131.560944 210.093704 241.949768 238.839310 229.159470 176.695648 182.395508 163.685333 146.532959 250.574188 336.476074 298.617676 324.916931 292.406982 311.678864 239.940964 281.641571 324.511536 140.592438 176.575699 173.744827 247.946609 273.785278 152.014023 296.236908 200.691360 220.982162 344.498016 382.494110 258.673309 240.606842 248.183212 274.942932 163.171890 106.161636 297.592682 218.384552 161.851898 190.966232 419.509674 306.355713 273.785278 225.777771 339.994781 230.991119 245.373581 309.638092 183.813431 250.092300 236.021774 219.120468 188.338882 266.082855 284.724670 315.842133 214.423737 209.417068 349.591400 360.993744 287.398895 236.236145 203.677368 257.648346 254.000000 177.297882 173.860962 127.310814 249.134094 171.454193 232.436096 185.253555 145.386246 254.746323 70.601517 214.070786 154.726944 63.130096 152.014023 233.479355 280.729614 246.770401 613.795898 220.982162 299.649780 199.920059 192.806519 225.191345 210.433655 194.682632 209.924133 202.094788 250.574188 241.276443 181.885315 151.130737 213.894730 147.446716 244.681091 148.541412 
conv_38_param_0 818.555481 1760.379028 2063.230469 881.681335 666.912842 576.709534 784.012085 763.304504 2103.911133 744.194580 1377.080078 609.124146 988.958191 518.377686 1029.573486 367.367218 342.006561 1166.349731 694.515381 770.654785 1593.237427 782.832214 561.459229 835.649780 1193.100952 1380.735229 738.384644 1449.002808 914.221436 1055.691528 2349.822754 1001.332031 923.964478 817.269470 958.879272 586.131836 1213.275757 719.491028 592.136597 669.487793 698.713257 1919.527710 717.506226 847.908691 992.732849 745.794983 852.075378 1218.248291 1706.946655 510.994110 2060.166260 845.153503 1993.072754 3263.949707 1242.249512 448.828308 686.722107 602.422668 720.487549 1521.029297 1628.143921 1257.261597 2269.103516 703.913391 894.569214 1155.340332 587.455688 1284.424683 2542.172363 993.680969 1163.740479 1024.000000 944.944580 466.121857 904.681763 1474.676147 530.808167 511.748169 750.096619 604.522949 1745.610718 606.991821 1109.742920 751.179810 712.591797 2671.075684 1621.798950 663.933655 669.918884 574.797791 919.879761 1195.843628 1951.939941 958.879272 1792.220459 756.093018 2796.731201 668.197815 2326.179932 2528.272217 950.990845 1566.843384 627.872070 997.491821 1741.228394 1066.513550 893.800659 1206.242310 609.480957 1612.998413 1789.138428 1216.112183 774.671631 2243.415527 1271.086182 1161.142822 1218.961914 2039.968628 823.740295 1396.488647 1166.349731 1454.065674 901.545898 596.892700 370.507111 1435.012451 1389.030762 1160.495239 1948.284668 3572.133789 847.908691 2033.986328 1121.707764 685.816772 838.343262 1565.664429 536.557007 1102.101685 812.799988 988.018982 993.680969 1371.633545 2409.690674 889.217102 1045.086914 950.990845 823.088623 616.341248 1516.594727 477.678619 907.047974 771.798218 2092.275635 662.243164 1994.983643 903.895752 589.786865 1162.440186 1211.862549 1004.231689 1914.229980 671.648804 649.428223 2564.101074 826.357422 1964.842285 967.799072 1082.605591 1475.722046 2426.551514 1537.892090 659.723511 716.517883 640.236328 1267.987793 1167.003906 2575.208008 772.371216 1349.395630 617.805237 306.175385 1974.163208 1438.982056 1521.029297 2922.427002 1298.856445 1219.676392 1103.270386 1910.714478 823.740295 1776.915405 830.314453 1193.785400 807.124878 740.486816 693.589355 1862.818237 951.860962 941.523987 724.501404 878.702698 1084.863403 1748.544556 649.833862 886.942871 1891.607300 277.287842 948.390137 1604.292969 1055.691528 1365.333374 665.207153 1854.516968 2033.986328 2140.707764 474.627747 842.416199 1706.946655 1129.011353 749.016541 1191.052124 1442.973633 2034.980957 2368.546387 2970.404053 949.255493 2020.163086 783.421692 603.821228 1961.138550 2127.574707 856.988464 278.326385 854.174072 2184.533447 1801.530762 676.452515 1016.496338 788.767273 1220.391846 923.964478 670.782715 484.801483 1556.296143 712.591797 1516.594727 1665.947144 344.498016 1260.307739 1034.693237 918.255981 913.418762 1935.598145 743.131409 1085.995850 805.874512 
conv_39_param_0 367.107971 534.626953 443.093689 441.214600 412.850800 391.416107 574.797791 469.487366 455.509644 285.036713 293.727844 502.115845 350.770050 319.332092 550.176636 348.420624 418.160767 422.920319 408.634735 134.070099 481.213684 622.611633 492.606049 670.350525 157.921066 390.241547 421.208099 665.632751 421.891327 335.391357 339.329407 279.072968 514.277832 529.727112 462.392883 214.955368 694.515381 271.498962 352.911804 415.488831 591.463318 236.021774 495.893219 363.770630 523.595398 211.288376 294.559448 399.533020 481.659271 285.976898 632.452271 407.993713 787.573059 438.980591 465.704559 421.891327 558.745422 434.217041 604.522949 418.497192 418.160767 561.762390 291.587433 147.279724 252.275467 449.993073 336.041351 529.996948 358.012390 107.035393 324.107178 345.642517 279.072968 340.662750 483.899536 503.087036 541.302795 319.921265 234.532013 617.438599 489.822968 455.908844 294.059906 380.535492 553.690247 260.617249 795.400635 158.017014 318.745087 751.722534 333.670288 691.744690 359.745514 784.012085 347.954529 413.836121 179.500351 467.378265 296.405701 225.973938 405.133942 214.247116 96.906113 475.930481 345.413025 581.544983 192.663696 597.578430 335.607727 318.549896 316.034027 220.047379 460.346893 211.804565 185.385605 987.081604 362.503143 443.849823 336.911926 333.456421 644.200623 270.651398 302.437195 223.834763 327.989899 264.056854 331.332489 359.496887 
conv_40_param_0 349.356628 508.248169 400.455750 243.080368 379.979553 397.396484 387.335815 355.808472 569.137878 399.226410 605.931274 197.942154 318.940521 295.563629 338.446320 400.147705 451.947876 206.261703 253.011673 247.239548 303.673096 438.240936 283.792694 243.307770 489.362183 423.954346 264.056854 370.507111 331.966827 506.023346 508.994141 491.210571 
conv_41_param_0 31.728136 45.872833 65.824783 46.173092 65.927307 64.982597 65.824783 86.613914 58.299358 47.951660 63.935551 38.199760 72.433540 73.694717 55.111111 38.878139 31.680639 65.451546 77.377213 40.335449 51.700325 68.010712 50.588047 56.233837 41.878628 42.868332 56.635147 36.196125 56.534283 39.904461 48.243160 38.268837 
conv_42_param_0 77.142166 49.638779 109.840828 72.350998 134.722549 70.542221 78.331894 83.099480 115.118767 112.169609 58.406624 75.580956 54.263248 67.218636 108.898796 73.269478 62.060608 52.818634 107.698051 144.619583 76.769043 62.642330 47.807228 112.268791 47.627907 71.254768 104.506996 88.055481 59.058605 82.990852 59.669174 40.258720 
conv_43_param_0 154.378113 204.800003 252.437378 186.181824 178.965469 214.305481 202.675186 184.023193 211.626663 166.198959 168.403183 85.276024 144.127121 122.563705 182.830811 188.811890 226.540588 247.275558 138.393463 178.839432 187.834320 129.965195 146.117371 231.496811 108.805481 252.437378 146.370026 206.633041 191.661880 128.844238 182.567932 203.161606 
conv_44_param_0 46.682354 53.986393 43.905949 66.271400 58.032906 60.064335 100.614899 60.064335 36.762016 44.552982 45.058907 31.290291 33.135700 31.305719 61.341064 58.460403 65.620674 47.951660 46.751106 67.648376 51.076427 42.897297 57.507248 25.745337 59.279179 58.514286 63.774986 58.406624 46.820061 56.534283 50.628387 47.987907 
conv_45_param_0 170.442993 156.401688 129.272369 196.003021 129.401001 138.570053 142.753021 141.818970 234.532013 113.183640 155.281189 113.877411 151.394638 141.356522 126.876099 162.154617 89.257378 138.201920 140.897079 110.962456 100.113937 135.325699 163.274323 121.653885 207.910477 178.147949 140.137924 142.674713 178.637360 114.781998 179.872757 126.505836 
conv_46_param_0 351.243744 703.437439 434.943146 357.029510 649.428223 460.754639 611.271423 508.000000 329.027191 453.128906 343.134552 472.472290 406.717743 839.019348 398.920258 399.533020 340.662750 445.751495 512.252075 435.307098 589.786865 457.110718 475.930481 458.318939 428.494232 469.064026 440.094757 459.127991 380.257324 562.978333 350.061920 373.432892 328.196838 347.721924 476.802948 351.481079 391.710846 731.634338 434.579773 513.516296 455.908844 412.523407 622.611633 350.297638 281.489166 536.280396 561.156433 630.918152 449.993073 717.011719 455.509644 403.875763 571.639587 273.353638 472.043549 348.888000 300.689026 312.240082 291.587433 472.472290 457.110718 626.737366 302.261475 562.673889 
conv_47_param_0 486.160736 265.675171 418.497192 332.816376 360.743408 1029.573486 376.405212 665.632751 368.669037 307.805908 375.589905 1130.237915 790.565369 352.672546 567.895203 531.893677 602.422668 791.768616 266.082855 412.523407 497.791382 613.072510 766.114868 373.701141 775.248901 613.072510 731.634338 289.639191 1018.486511 309.086151 375.589905 487.984985 315.459076 330.910950 561.762390 259.706451 386.759857 850.681946 466.121857 528.113708 877.961182 367.107971 613.795898 449.993073 537.666138 491.210571 450.382690 422.233765 726.525146 416.486786 500.184601 667.340576 527.310669 490.284637 426.736664 289.156189 464.457153 390.827942 946.664246 461.163116 826.357422 153.539551 773.519714 557.846619 453.523987 546.133362 524.916260 481.213684 549.305176 341.557465 828.331238 343.814941 344.726318 1046.663940 359.496887 305.277008 413.507141 390.241547 622.239258 930.576050 283.947601 371.565704 240.162506 272.066956 498.745911 850.681946 825.046814 418.834137 516.832581 889.977783 229.361557 346.332886 461.982239 807.751526 795.400635 316.034027 445.751495 324.916931 451.947876 741.014221 381.093048 816.627930 602.771729 310.747894 331.755096 193.667908 1209.045898 394.383636 461.572327 502.600952 304.740479 1011.063171 451.163910 1242.991577 587.787598 380.535492 280.881195 327.164795 549.885864 866.986694 440.840668 796.618713 656.393677 625.983154 264.056854 562.065918 649.023071 483.449829 
conv_48_param_0 441.589142 518.119507 339.329407 359.994476 401.073242 429.201324 301.735504 293.396515 386.472504 229.766785 309.269928 532.438049 391.416107 456.709381 461.982239 383.057434 397.093140 272.209320 236.021774 324.309235 541.021301 573.530334 553.690247 553.101562 542.997925 559.948303 352.911804 438.980591 436.036896 282.866760 289.800568 322.100311 810.899475 238.401474 284.102661 345.872345 475.495422 244.681091 583.174866 268.972076 248.420242 696.841248 261.797699 348.888000 226.761993 308.719299 249.852066 310.377075 318.160248 363.262573 278.923309 363.516418 284.880615 284.413330 226.367279 253.504868 352.911804 208.744781 313.557556 426.037689 222.114426 336.258575 359.000702 518.636108 
conv_49_param_0 307.623901 522.543457 519.932007 546.420166 853.473328 517.604004 998.449158 459.533569 254.871140 425.689026 436.036896 556.652771 556.950745 251.787033 321.304504 436.402679 
conv_50_param_0 16.849257 15.722635 12.303876 19.262136 19.008383 17.121899 18.618181 14.234978 9.882939 19.227135 13.947276 16.498960 12.769107 16.138281 13.971831 12.586836 
conv_51_param_0 74.647858 97.076454 54.542953 56.383659 65.519089 52.599834 60.870567 54.731033 225.134750 64.129295 58.139194 44.521740 44.867844 75.806564 50.188141 63.967758 
conv_52_param_0 63.203583 97.225113 79.459328 92.346184 44.772919 56.483986 146.877960 60.870567 52.730896 74.168221 71.294777 39.214329 67.756668 246.794952 106.167221 38.735813 
conv_53_param_0 19.332521 16.585161 17.655172 18.552893 17.094238 20.116604 23.204678 20.559586 14.008826 22.245270 16.329218 24.588692 12.284830 10.717083 15.058824 23.957735 
conv_54_param_0 174.327072 119.529411 170.108566 81.229233 156.873337 130.701508 169.003250 71.730835 78.769234 82.622620 92.036804 87.633423 59.274384 111.057213 112.303970 114.478874 
conv_55_param_0 215.668320 197.791641 204.638870 379.148682 244.681091 320.908081 169.223160 453.128906 440.094757 317.965759 247.239548 164.305756 209.417068 167.156815 171.567276 352.433594 168.455963 330.700562 243.080368 140.137924 187.254135 129.659027 214.423737 251.057922 194.391632 234.320724 160.454041 315.842133 268.140198 218.201340 254.746323 349.122162 
conv_56_param_0 658.887878 92.101982 208.243393 239.719818 378.596802 206.589355 115.086723 444.988892 482.105652 234.743683 338.006500 955.357239 313.936035 860.532654 759.959106 451.163910 499.704132 696.374817 1557.461060 315.267883 264.728760 422.233765 142.284470 39.218334 270.089294 381.372437 253.504868 410.569855 484.801483 467.798553 356.052032 538.501038 174.093704 815.347961 167.695679 63.874264 296.574677 364.025208 206.261703 207.082809 436.036896 1240.768066 669.057251 1430.081055 361.746857 333.884460 259.576843 429.910736 236.236145 559.647095 1294.010010 370.507111 234.743683 782.243591 821.139709 222.114426 608.056091 944.087097 973.231079 157.538467 116.218048 174.678314 691.285034 464.457153 
conv_57_param_0 685.816772 466.958710 355.322418 324.714111 588.785522 460.754639 423.609131 245.142319 473.763214 433.854889 489.362183 232.852280 387.335815 750.637817 501.148376 433.493347 267.039001 718.001404 291.424103 881.681335 318.940521 299.822479 687.629883 610.195923 456.709381 361.495483 301.211334 574.797791 382.494110 845.153503 220.047379 466.121857 441.964325 278.028870 448.441376 284.102661 1186.975464 853.473328 425.340973 243.080368 499.224579 288.674805 1322.802246 650.239990 472.901825 435.307098 411.544312 219.675674 672.082703 561.762390 504.062012 385.899109 353.151398 453.128906 450.382690 629.772400 443.849823 438.610443 325.526917 433.854889 717.011719 502.600952 826.357422 571.639587 
conv_58_param_0 304.919098 259.059753 176.336273 135.820358 397.093140 238.401474 392.006042 285.976898 189.712616 284.880615 274.362854 345.183807 313.180023 163.479568 229.969940 225.973938 178.637360 376.133057 203.041367 344.042328 126.137733 262.458130 277.435730 164.305756 199.460129 123.973305 223.642303 348.420624 230.581558 180.371704 238.401474 299.822479 282.406067 241.724915 163.069595 268.972076 159.372543 281.641571 183.166199 351.006744 240.606842 210.945663 274.652588 396.487793 284.724670 238.401474 302.261475 277.583771 296.405701 354.595764 548.725708 196.003021 252.031006 248.183212 331.121582 188.885986 292.736084 183.037292 138.791885 236.236145 126.015503 245.142319 217.471573 191.669861 368.669037 207.744415 273.785278 260.226105 168.893509 342.908386 251.787033 174.678314 242.853409 215.133163 397.700317 241.052826 327.164795 173.628845 122.110802 123.973305 308.353302 240.606842 133.109512 172.249008 246.070007 182.267700 274.073761 174.561081 265.268738 237.097534 165.771835 187.930634 190.686218 180.121887 226.761993 126.505836 243.992493 260.096008 176.575699 219.305222 280.881195 143.540833 268.833069 306.897949 215.311264 248.657745 266.355347 156.120041 152.997650 220.607300 295.731659 151.925232 183.553986 184.465256 361.746857 252.275467 250.092300 174.327072 269.111237 411.870148 212.323273 257.393372 144.417542 268.833069 312.427643 241.500458 285.192993 130.308624 
conv_59_param_0 1624.330933 587.124146 853.473328 904.681763 1064.876099 1663.283813 1240.768066 557.547668 444.228851 688.540039 639.842529 1350.271240 348.187408 371.831299 394.982544 562.978333 819.845520 758.850464 1314.446045 802.765442 564.812134 531.350342 494.479095 845.153503 982.421143 880.934814 1289.199463 543.849426 1135.790405 718.001404 233.689133 437.503784 
conv_60_param_0 29.862654 21.333334 51.448948 16.146490 26.586266 28.727602 36.403671 27.845613 11.459928 22.919855 44.088890 25.787165 20.040403 14.481751 38.108044 21.376431 27.436474 19.320755 41.658794 33.770214 19.031176 21.219252 27.579496 42.268974 19.765879 19.099880 17.252174 10.609626 28.753624 33.015079 15.320463 19.180664 
conv_61_param_0 46.307804 70.075058 46.785557 48.575363 182.044449 45.740635 51.532467 100.455696 38.806847 112.268791 40.412476 194.450226 42.100796 61.758755 129.965195 57.042229 58.568264 75.311981 75.942581 63.839115 51.035370 57.874203 66.030159 69.159042 88.239052 82.774445 47.485416 78.769234 62.151737 36.592506 40.258720 54.449398 
conv_62_param_0 50.668797 74.341919 50.427322 66.654068 116.598717 52.818634 58.406624 92.145142 44.741367 60.349812 67.612350 64.783676 69.959229 85.678810 57.247971 41.686146 79.658722 63.235062 66.935158 98.202629 55.740124 73.737518 144.208969 84.990631 54.778255 59.279179 80.161613 45.283878 50.994377 67.289879 63.710987 81.499359 
conv_63_param_0 34.299297 33.627117 55.448036 37.522457 45.511112 34.768894 11.272727 29.338263 41.549740 35.329994 19.379732 75.806564 26.878916 26.431307 19.582973 30.060606 32.048462 21.550577 35.369358 14.222222 17.576965 34.096672 56.534283 60.580154 41.468323 38.688606 28.701628 37.149212 57.403255 25.600000 48.949883 55.496502 
conv_64_param_0 153.268127 182.267700 161.952682 132.297043 123.035004 151.482819 176.575699 214.955368 171.680527 148.711258 193.956741 133.245895 311.305817 249.852066 181.631287 174.913254 203.677368 148.541412 95.623528 233.269958 170.219894 180.371704 163.376877 210.433655 227.158081 182.523514 275.963928 209.417068 161.450027 151.659470 140.592438 111.917381 
conv_65_param_0 446.133789 192.949554 276.257050 146.450455 325.934845 223.066895 285.819794 404.503876 283.174744 274.797668 530.537476 407.354736 350.061920 305.277008 364.025208 324.107178 318.549896 244.221603 343.587860 358.012390 94.994888 288.674805 233.060928 366.590546 511.245209 349.356628 311.492218 289.156189 257.266083 222.304276 206.261703 382.213074 463.216370 136.605042 134.347107 408.313965 249.852066 438.980591 201.937881 366.074585 254.497070 125.046150 141.510330 173.744827 239.499084 148.541412 367.107971 253.011673 220.047379 518.119507 320.315277 302.613159 74.355629 224.607941 302.965637 308.170624 465.704559 319.724640 273.785278 159.666046 160.850952 220.047379 248.420242 375.318909 
conv_66_param_0 691.285034 316.034027 759.404358 1419.350586 683.563721 500.184601 396.185822 1282.050537 363.262573 1257.261597 124.567047 804.627991 2043.976440 574.797791 867.709778 1171.603638 1077.002075 343.361053 695.443848 377.497833 1083.169189 812.165466 243.763824 903.111084 480.768951 858.402649 3679.519043 771.798218 1112.710205 214.777863 475.061188 1222.542847 610.912537 298.446350 725.511841 189.712616 579.278381 245.142319 408.313965 109.100670 734.215942 497.315491 299.132843 468.219635 856.283142 1047.190796 623.731445 741.542419 228.756378 1341.565430 1229.768311 60.656715 554.871460 188.202606 464.457153 321.106171 336.258575 1253.474731 435.307098 890.739746 1251.966309 248.183212 1341.565430 1078.677002 439.351349 236.021774 367.367218 872.805359 450.772949 720.487549 389.949036 633.993896 234.320724 389.365265 141.356522 1485.202026 585.801819 754.995667 1422.261108 298.617676 304.562073 598.954529 919.879761 248.657745 670.350525 80.925949 836.994385 294.726349 356.052032 256.884949 663.087341 112.013779 836.994385 206.753571 1058.376343 836.321533 282.713043 296.913239 502.600952 381.652252 419.848267 559.346252 732.664795 420.187408 129.465408 1080.918457 614.520996 1124.131836 1573.954590 511.496552 394.682861 898.431763 66.794044 895.339050 532.438049 501.631622 329.235443 337.130280 213.718979 434.579773 1130.852173 489.362183 419.509674 416.153595 193.379929 333.456421 299.995392 473.332123 
conv_67_param_0 421.891327 692.204895 265.810944 493.072998 1017.490479 499.224579 500.184601 518.119507 654.741333 518.636108 931.409119 275.963928 478.557495 364.535400 627.115112 455.111115 509.992157 494.949585 398.920258 402.937256 899.986145 962.427368 399.840118 962.427368 767.811096 656.808105 908.632324 379.148682 553.985107 463.629242 875.007568 588.119812 400.455750 359.745514 536.557007 1362.651001 402.625397 378.321442 923.964478 1068.156006 415.820953 351.956696 640.630554 680.879578 529.996948 530.537476 762.744873 1209.748779 562.978333 659.723511 465.704559 381.932465 1008.124023 490.284637 407.035980 1620.535767 897.656616 578.634033 1175.575195 306.716980 459.939880 494.009491 366.332397 672.082703 933.917419 679.545410 560.853882 572.268433 1050.892944 804.006165 508.994141 461.163116 501.631622 746.329956 922.326233 457.110718 722.990967 565.426086 633.993896 824.393005 327.576813 859.821472 460.754639 244.221603 329.443939 1115.693237 287.557770 1544.742432 531.350342 647.407593 588.785522 845.153503 932.243713 1012.046692 893.800659 494.949585 1179.573730 1005.201904 549.595337 753.901428 657.223022 666.485596 343.587860 510.492645 592.473816 567.585388 294.059906 883.178284 452.340881 470.336334 880.189514 448.828308 589.452698 449.215881 836.321533 601.378052 594.845032 746.329956 446.900330 540.740112 342.231567 557.249084 558.745422 537.944153 1601.822998 702.962158 272.351837 1430.081055 
conv_68_param_0 268.416931 208.243393 256.378510 172.477448 130.178177 194.537018 158.209244 165.245239 187.389053 213.894730 215.489639 233.479355 207.744415 282.559479 282.099792 139.386917 187.930634 214.600662 170.778732 185.253555 256.000000 278.028870 178.514755 214.600662 227.356644 196.744324 208.912445 187.930634 148.966782 108.283096 256.504944 286.449341 188.475357 155.746109 167.912201 136.104660 264.325195 168.129288 243.307770 201.468628 211.804565 269.389954 138.717865 213.193436 258.159790 239.058823 192.521103 184.334518 182.012604 249.134094 165.350281 201.312698 136.247253 168.565140 130.701508 244.911484 198.092911 235.168167 247.474792 234.743683 240.829636 219.120468 264.056854 329.652710 223.258362 252.031006 156.968018 156.120041 219.675674 166.301788 225.581955 246.536499 199.154678 259.576843 173.744827 206.098251 186.716446 169.003250 228.354691 242.400742 169.554108 116.322006 140.592438 199.307281 226.761993 392.301666 196.298874 146.285721 252.275467 190.267746 243.080368 117.054909 98.075417 221.546844 170.219894 215.311264 201.624802 145.142853 288.354767 202.882996 163.891617 157.347855 185.517838 166.621399 149.480453 218.201340 273.210083 133.382568 188.885986 194.101486 191.106537 218.018448 254.871140 155.652908 188.066528 247.239548 202.566971 262.325775 167.912201 113.678322 236.236145 265.404083 273.641235 248.183212 153.811951 211.804565 213.718979 206.918060 468.641449 404.189575 316.226135 399.226410 587.787598 543.281433 236.021774 388.492920 493.540802 249.612289 170.554749 794.186279 1697.200684 374.778107 351.006744 319.724640 323.905365 476.366302 237.747711 153.721039 1126.566284 538.222473 376.405212 309.453888 549.595337 425.340973 275.088318 356.784637 400.455750 472.901825 547.282471 449.604156 443.471436 319.528259 407.993713 713.080200 353.872101 571.953796 574.163330 720.487549 368.930511 307.623901 436.036896 332.391052 323.100616 438.610443 522.806030 491.210571 417.489563 540.740112 249.612289 429.201324 184.334518 237.530594 411.218964 866.264771 373.969818 299.132843 493.072998 453.128906 673.387695 620.754150 351.956696 424.993469 264.863556 306.355713 256.126038 358.012390 471.188416 353.151398 446.516724 453.128906 453.523987 378.596802 408.634735 276.550781 299.995392 331.543671 283.947601 384.189056 396.790222 289.639191 294.893433 567.585388 212.844513 542.997925 384.473022 341.557465 248.657745 353.872101 378.872528 558.445496 301.385864 566.041321 353.391296 523.331970 196.447128 666.912842 511.496552 472.472290 455.908844 708.708435 481.659271 422.576752 317.577545 287.876038 257.776001 525.446472 477.678619 346.794678 325.323334 430.979279 597.921814 309.086151 251.300476 457.110718 451.163910 294.726349 246.070007 316.611084 449.993073 488.902252 416.486786 134.070099 432.412292 430.979279 434.943146 401.073242 
conv_69_param_0 85.218788 103.653877 58.352940 78.477135 81.238640 85.161636 55.593697 54.402740 64.849846 117.244690 72.682312 88.732353 68.971214 93.640121 42.752861 77.001816 69.008698 64.783676 84.425529 150.892456 84.933777 110.031197 183.358841 115.432724 35.567509 58.139194 85.968857 79.310432 75.897194 143.882156 129.435272 125.594460 105.725227 33.806175 44.242508 52.253498 54.402740 57.979908 73.524033 93.571114 31.121569 67.937935 73.016678 97.523811 63.839115 85.736664 87.328751 75.089294 59.113594 33.806175 87.449036 69.234459 110.896072 105.112579 64.291649 87.388847 74.823807 55.206955 84.990631 41.333332 83.045128 53.803391 73.823257 44.273361 
conv_70_param_0 94.335808 87.751213 98.202629 49.484020 96.706779 108.156731 77.424393 82.612885 138.017395 118.780167 56.233837 84.820305 118.227188 61.638836 116.384972 51.490673 156.278152 104.679306 46.613804 130.365509 107.515663 105.549461 84.145790 138.771591 74.168221 99.745483 84.820305 147.475037 153.445312 124.242661 131.241348 44.772919 84.650665 111.774651 53.712353 73.823257 215.762100 137.049103 53.128033 87.811897 78.477135 179.598297 64.949364 75.535988 65.082520 77.947205 123.277672 72.890930 51.076427 46.240349 87.449036 90.245911 192.387878 54.216908 71.095184 70.659988 92.480698 82.612885 38.997543 68.561554 57.716362 95.542511 40.335449 152.340729 57.196396 120.699623 103.908348 92.346184 121.391968 128.778900 53.441078 62.797230 261.536560 108.248932 98.126740 63.583374 73.780357 67.041183 73.952240 154.097092 43.936333 77.142166 181.653793 76.630051 192.242233 65.350487 140.927856 71.576096 51.035370 127.166748 103.569328 67.504517 56.283688 142.669662 72.350998 93.986679 107.243240 132.335587 79.859123 101.015114 84.369438 64.949364 142.429611 95.470680 94.899849 111.480247 162.685455 72.599197 133.448242 72.268639 58.622345 111.971779 213.764313 127.421974 149.912628 63.615231 143.394699 124.121216 48.060558 64.000000 44.741367 100.376282 115.014496 71.015663 81.814430 119.450615 159.417450 77.661163 
conv_71_param_0 348.420624 390.827942 234.320724 405.133942 457.512756 304.205841 330.071075 248.657745 423.264435 428.494232 420.867310 513.009888 362.755920 335.607727 302.437195 537.388428 326.139191 381.652252 423.954346 449.604156 320.710236 444.228851 387.913483 366.590546 334.528625 378.321442 371.035675 433.493347 335.175262 449.993073 361.746857 223.642303 405.133942 324.107178 262.061462 400.764252 464.042816 304.205841 326.139191 237.313873 409.600006 417.489563 306.716980 356.540100 439.351349 392.894257 323.502502 359.496887 332.603577 354.595764 244.681091 501.631622 259.576843 365.560089 328.196838 600.683594 334.098907 272.351837 327.164795 340.439789 339.329407 435.307098 274.218231 226.564453 1608.012329 240.162506 338.446320 2540.620361 346.794678 175.740540 187.659454 1379.819580 2655.734619 391.710846 1823.635376 1095.717773 248.657745 1640.984253 1031.104004 1088.837280 504.062012 305.097961 381.932465 817.911926 957.114990 260.356354 316.034027 1614.249756 187.254135 309.822510 813.435486 728.560242 294.226257 631.684265 1180.912598 3241.071533 997.491821 552.807678 2356.475586 392.894257 145.386246 794.186279 289.156189 521.234497 950.122375 1321.122559 225.386475 229.969940 224.607941 774.671631 517.346619 557.249084 1919.527710 1159.202271 1867.834839 2499.421143 354.354218 267.726196 1961.138550 528.919189 511.748169 332.391052 1698.586182 977.804504 160.850952 467.798553 786.977295 277.880341 301.735504 355.079865 419.848267 232.436096 325.119995 423.954346 495.893219 469.487366 338.226257 475.930481 455.908844 430.266327 359.745514 577.991089 418.160767 490.747162 405.765991 306.897949 421.891327 435.307098 210.945663 401.692657 433.132385 327.989899 469.064026 494.009491 392.597748 388.492920 288.995544 540.459229 290.772491 399.533020 408.955963 496.366425 269.529541 306.716980 332.816376 321.304504 361.998596 324.916931 413.507141 322.900055 337.130280 445.369873 338.226257 508.745239 263.789032 580.895569 408.634735 277.435730 247.474792 325.730743 251.787033 395.583282 312.240082 352.194977 311.678864 395.583282 346.102448 448.828308 325.119995 244.221603 334.959442 275.817596 379.425232 1068.704712 220.233704 1473.631714 316.418488 847.218262 1656.662476 2371.245605 1704.150757 537.111023 651.869690 932.243713 196.893265 752.266113 211.804565 194.828461 714.549438 1585.951172 220.233704 163.069595 246.770401 502.115845 884.680298 326.139191 316.611084 777.566528 303.142181 390.241547 1847.928955 163.274323 2363.166504 349.826508 204.638870 2998.224854 1610.501587 155.839432 3569.070312 1403.080200 2327.480957 1618.015503 852.075378 272.780273 173.860962 230.786163 430.266327 410.246063 221.358292 208.577393 180.121887 347.954529 253.258026 256.126038 1460.188110 1067.060547 400.764252 1182.254517 261.665985 324.107178 249.134094 1748.544556 732.149170 323.502502 173.744827 348.654144 
convdw_211_param_0 27.183947 148.626282 459.939880 23.748722 175.859360 1732.529541 191.811203 39.147503 27.740614 794.186279 20.867779 40.792973 383.339722 25.047766 50.959248 21.375410 91.906715 83.097763 508.994141 97.633636 131.361618 189.989777 324.714111 23.306093 332.816376 698.244324 19.909369 181.885315 1062.158203 49.000755 24.371815 28.051769 54.367893 114.680779 25.600000 204.317368 733.698181 44.906078 136.748688 57.441696 53.561779 24.761614 706.782593 730.606750 100.812401 72.774483 64.157867 57.340389 17.238600 34.133335 63.874264 19.387001 181.504532 227.555557 37.135353 177.177109 101.441498 114.177345 15.393939 45.344490 931.409119 23.058157 40.412678 342.456879 548.147522 57.441696 181.885315 34.223160 633.222168 42.059509 64.475952 31.473379 40.869892 49.523228 125.771759 49.447910 1286.807617 53.385880 383.057434 174.913254 48.023632 34.133335 388.492920 295.899872 126.876099 162.255768 53.473682 241.052826 291.914703 21.689127 2114.601562 300.862915 23.222857 514.532166 29.237410 278.773834 118.118073 19.872860 23.322811 105.558441 13.324590 30.048059 41.337570 25.086420 126.015503 166.408188 564.199585 187.119431 58.527454 217.653549 225.191345 188.338882 1075.332275 129.015869 128.000000 62.825119 35.707851 46.346401 184.203964 15.968566 360.743408 33.209396 224.607941 39.242004 49.712540 378.046509 1311.132935 485.253723 
conv_72_param_0 752.810425 1143.279175 767.811096 611.271423 2134.121094 2889.955566 576.390015 1019.484558 931.409119 779.313843 841.734619 425.340973 356.784637 512.504456 1340.701050 409.277740 989.899170 1065.967163 550.467712 651.053833 766.679443 1013.032104 537.666138 615.247803 657.223022 836.321533 688.996033 1111.521362 1027.539795 701.540100 709.675293 568.515869 439.722748 730.094055 533.804016 633.607788 685.816772 988.958191 510.743256 551.050842 712.591797 671.648804 637.881042 665.632751 842.416199 647.005005 485.253723 859.111450 627.872070 514.277832 1610.501587 792.371643 629.391418 588.452515 625.606750 1176.905029 376.405212 1096.872925 682.218994 389.365265 547.570557 1103.270386 1018.985291 1006.174072 705.345093 1240.028564 743.662598 1264.136108 817.269470 386.472504 592.136597 698.244324 1233.413208 883.178284 1016.496338 371.035675 628.251221 538.779907 493.540802 1067.060547 988.958191 544.989014 1053.553467 450.772949 845.153503 393.191223 797.229126 985.212097 864.824585 863.389221 651.869690 426.736664 657.638428 804.006165 749.556213 857.694946 337.130280 655.153625 621.495789 326.959137 827.672241 462.392883 803.385315 882.429199 531.079102 1135.790405 750.096619 720.487549 1012.046692 811.531982 430.979279 735.253723 1555.133057 3689.304932 945.803650 1779.955566 846.528870 683.114929 559.045654 805.874512 820.492126 645.800110 736.815857 676.013000 863.389221 799.680237 600.683594 572.268433 
conv_73_param_0 630.153870 457.110718 302.613159 333.242798 242.175049 123.385201 275.525421 310.562378 433.132385 192.806519 336.258575 256.252228 571.012085 450.382690 283.637939 261.403015 312.240082 338.006500 549.305176 445.369873 473.332123 566.349487 569.761230 214.070786 165.350281 225.386475 585.142883 578.312378 257.266083 555.463989 305.635712 850.681946 479.439636 360.243774 664.357605 517.089478 292.078613 320.908081 415.157227 251.300476 533.530273 267.450897 255.121140 280.426941 291.914703 214.955368 567.275879 499.224579 334.959442 217.835846 167.695679 300.862915 230.991119 307.079102 381.932465 296.743866 426.736664 478.998169 291.424103 236.021774 187.659454 538.222473 509.992157 604.522949 620.384033 347.026031 432.772034 510.743256 279.372711 285.506042 648.214355 642.212341 347.257690 376.133057 313.180023 354.113007 275.525421 341.109497 152.548981 480.325012 737.861023 522.543457 583.174866 311.305817 348.187408 189.436264 428.494232 274.797668 446.133789 227.754822 312.052795 429.555725 419.509674 415.157227 426.037689 389.365265 277.731995 579.278381 487.527649 676.013000 409.277740 358.012390 291.424103 275.233856 499.224579 207.247803 834.979126 291.424103 451.555542 232.436096 304.205841 302.437195 429.201324 287.240204 299.649780 374.778107 539.618286 177.904236 208.076797 232.021408 449.604156 374.238861 268.140198 372.630371 408.955963 361.495483 452.734558 241.724915 318.354950 415.157227 225.777771 676.013000 483.899536 163.274323 446.900330 383.057434 437.136139 268.972076 397.700317 590.456299 363.770630 540.459229 320.710236 347.954529 188.748917 351.718719 787.573059 412.850800 525.181213 252.520386 342.006561 635.155090 404.503876 304.383850 229.563995 558.745422 310.562378 321.701904 536.833862 605.578552 416.153595 150.344513 390.241547 448.441376 207.910477 397.093140 404.503876 504.062012 204.800003 176.455902 312.052795 339.772705 275.088318 356.295898 220.420334 206.098251 323.905365 603.121155 388.783264 288.035431 688.996033 201.937881 651.461487 334.743896 493.072998 679.989563 210.093704 427.789459 365.817169 593.149353 388.783264 586.793030 373.701141 453.523987 551.635193 426.386871 423.609131 180.747742 296.743866 403.249603 554.280212 417.154785 372.897491 490.284637 544.418640 269.529541 294.059906 518.894775 726.525146 351.481079 301.037048 419.848267 361.998596 126.382896 278.923309 348.654144 467.378265 481.659271 246.770401 531.079102 151.394638 174.561081 190.407028 490.284637 227.356644 476.802948 666.058899 628.251221 420.527069 478.117645 317.965759 251.543518 262.458130 190.686218 378.596802 446.133789 257.520782 266.082855 300.862915 366.590546 338.887299 541.866638 276.403839 583.829407 285.976898 358.753113 713.569275 259.576843 469.911469 327.989899 398.920258 453.128906 237.530594 375.861267 323.100616 274.362854 
conv_74_param_0 398.004578 328.611511 624.480164 558.145935 315.650482 292.736084 689.452637 457.915497 305.635712 644.599731 611.990601 835.649780 539.618286 483.449829 361.746857 356.540100 561.459229 627.115112 455.509644 566.041321 1074.222046 587.124146 619.276184 550.467712 651.461487 507.504395 169.997391 454.316162 751.179810 412.196503 700.595276 307.260498 240.829636 466.958710 614.158203 1046.663940 334.098907 553.395752 439.351349 1247.462891 864.824585 419.509674 247.710480 563.588318 261.534454 454.316162 872.073792 348.888000 334.313629 469.911469 602.422668 488.902252 764.426147 430.979279 446.133789 471.188416 440.094757 1442.973633 404.818665 273.210083 661.401123 502.600952 625.983154 582.521851 222.114426 422.233765 419.848267 437.872040 718.001404 571.325623 298.104309 493.072998 775.248901 505.040771 699.653015 803.385315 175.148819 241.949768 1058.915039 556.950745 517.089478 713.080200 563.588318 318.745087 419.848267 317.383759 487.984985 498.268188 265.404083 486.615540 531.079102 1729.649170 457.512756 436.402679 834.309570 412.850800 532.983582 488.902252 267.450897 303.318939 464.872192 466.958710 357.029510 551.635193 501.631622 430.266327 565.426086 510.994110 510.242279 462.804260 527.578064 606.991821 686.722107 472.472290 461.982239 488.443207 627.115112 385.327393 430.979279 301.385864 392.301666 563.588318 722.990967 655.566467 591.799744 417.824890 886.942871 676.013000 
conv_75_param_0 220.982162 271.215851 1270.310181 1708.348145 388.202972 1536.756226 5387.101562 253.752197 168.565140 1826.837524 1509.991333 1103.855713 256.126038 1742.686768 2987.463135 1457.120483 2010.403809 1630.695923 920.693787 3026.571533 288.195007 4558.089844 1846.289307 867.709778 2131.934326 1167.003906 2197.220703 358.012390 534.901794 2759.639160 1948.284668 312.427643 1286.012329 1445.981934 1476.769287 522.281128 1523.256226 1517.700928 1705.547485 1178.237793 256.126038 315.459076 759.404358 4734.397949 1420.319458 1587.160889 432.772034 299.132843 976.886414 303.495911 2885.947266 220.982162 389.949036 413.178711 1389.030762 2615.673096 1643.576660 312.803375 325.526917 756.093018 525.446472 2987.463135 1502.359619 367.107971 2493.430908 952.732605 1709.751831 1606.770630 325.323334 1231.223633 239.058823 472.901825 669.918884 396.185822 1215.401855 391.710846 1564.487183 542.149048 3732.319336 1222.542847 908.632324 1581.130737 889.977783 4089.961670 255.246323 2185.680664 1266.444336 4392.122559 1132.082642 441.589142 1844.652466 1478.868530 1433.035767 345.872345 1558.627686 1336.395630 267.588470 308.170624 388.492920 1053.553467 1571.577026 1403.080200 2324.880371 3211.061768 2048.000000 1344.165405 1579.930176 291.097931 920.693787 958.879272 321.304504 785.788513 1818.853149 272.351837 1301.293335 1053.020264 4299.107422 2083.893799 296.405701 1543.596436 597.578430 2310.680664 317.965759 359.496887 559.647095 1186.298706 1246.715454 1807.791504 1540.168823 525.977783 351.006744 1412.605591 1237.079712 905.469116 1476.769287 1302.107666 653.097290 299.995392 591.799744 3494.152832 783.421692 186.850571 773.519714 689.452637 828.991211 301.560577 1506.711060 241.052826 169.333328 488.902252 284.724670 1993.072754 1037.789551 442.340149 4216.348633 1831.661987 1964.842285 433.854889 401.073242 1160.495239 499.224579 1172.924438 3174.321777 633.222168 1127.787476 3907.545654 1396.488647 1493.731567 1024.504150 395.282684 335.175262 241.949768 1905.465210 3329.228760 446.516724 1428.118042 359.994476 426.736664 3231.006104 131.894516 2727.087891 494.479095 299.304962 237.097534 973.231079 719.491028 1722.490112 1191.734253 145.957352 259.836151 1516.594727 1721.065308 1395.552002 361.244446 342.006561 1903.721924 1472.588867 435.671692 862.673279 1413.565186 1064.331421 1152.141724 1360.868530 1068.156006 246.303024 448.828308 1651.403198 637.881042 1313.616211 2274.063477 183.295273 1767.857300 1203.451660 913.418762 1661.955322 343.361053 861.245056 190.407028 376.950714 379.148682 981.494324 593.826477 1570.390991 1637.110962 2313.249512 543.849426 1825.235107 363.009064 1761.869629 2024.093384 1361.759155 3508.883545 494.009491 346.794678 1552.811890 1270.310181 1915.992676 3004.719238 540.459229 449.215881 629.772400 1690.307007 531.893677 515.296692 824.393005 1278.898560 490.284637 1563.311768 325.323334 384.473022 2259.248535 1915.992676 314.125610 752.810425 1637.110962 250.815811 
conv_76_param_0 40.880875 241.628922 57.351398 241.399246 43.997227 136.167297 69.423729 184.424103 54.589855 131.717850 33.520592 32.424923 35.018204 48.949883 96.121117 52.994991 
conv_77_param_0 37.105785 195.799530 70.152489 35.747749 162.373398 21.772291 120.128670 119.002815 109.085907 212.690125 31.538996 64.389450 72.186470 238.452576 54.920414 109.840828 
conv_78_param_0 139.163193 156.495789 164.930878 164.826355 
conv_79_param_0 169.981262 197.320908 41.576950 116.813248 55.255005 35.929825 87.388847 48.060558 48.575363 49.101315 76.583839 121.975021 147.303940 94.126022 36.361969 63.839115 
conv_80_param_0 96.121117 168.180130 114.495941 241.169983 53.083611 38.665043 33.842216 237.782776 173.346069 128.323395 89.926346 39.482586 86.850891 322.069763 125.843407 36.508339 
conv_81_param_0 182.523514 160.751541 151.218597 152.191925 
conv_82_param_0 425.024261 208.328140 336.806366 151.613129 623.195068 643.323608 156.086044 73.269478 130.903091 168.626831 483.718109 163.418274 167.957672 110.126625 120.584991 405.350372 
conv_83_param_0 52.082035 56.736370 84.820305 102.814575 34.096672 175.018600 31.791687 174.537460 42.381844 34.579521 134.295074 59.223881 95.758675 162.477280 152.249405 91.745667 
conv_84_param_0 168.565140 136.461700 176.455902 127.498039 
convdw_212_param_0 67.347488 285.506042 190.407028 186.048645 77.779907 375.861267 114.478874 97.487259 497.791382 220.794571 264.998474 139.836563 73.307777 108.554260 78.912621 201.781219 71.415703 136.892639 67.662849 352.911804 236.236145 148.118454 189.574341 217.289886 310.747894 133.656738 251.057922 137.544159 138.055206 102.158684 80.925949 146.698257 453.523987 81.688438 243.080368 149.997696 129.723694 162.357056 172.135010 378.321442 86.410629 70.909485 430.622528 76.634064 119.091576 78.389389 391.416107 100.191063 159.568100 125.771759 82.833122 132.566772 81.637161 143.145844 111.725082 248.895691 183.166199 78.200844 98.001511 354.595764 396.487793 155.932861 110.585037 194.101486 
conv_85_param_0 400.147705 322.499695 228.354691 235.807800 286.449341 250.815811 186.850571 374.508270 341.109497 224.802078 421.549438 224.607941 357.029510 267.450897 234.532013 342.231567 353.391296 225.386475 271.074524 313.180023 317.190247 376.405212 309.269928 433.493347 201.781219 288.354767 254.871140 203.199997 192.806519 213.018845 295.228149 250.574188 271.924713 298.789215 322.100311 367.626862 309.822510 376.133057 411.544312 320.512634 232.228577 258.159790 450.382690 210.093704 286.765167 285.192993 288.835083 344.954895 160.553085 212.844513 280.578217 305.097961 310.933655 272.066956 251.300476 254.000000 307.623901 272.066956 278.624542 389.949036 272.494507 354.595764 230.991119 381.652252 
convdw_213_param_0 40.538654 156.026398 46.379459 113.380997 168.893509 225.386475 123.268250 234.955734 213.718979 113.085220 92.298080 72.409798 76.997040 184.073608 127.248535 117.477867 176.216797 114.579735 89.998619 87.929680 143.540833 98.223564 68.663147 145.875488 110.585037 91.518646 204.800003 99.806602 119.639374 95.693893 153.268127 125.650238 111.917381 136.461700 129.788422 128.252472 158.691879 69.507217 139.686356 132.499237 72.208771 193.667908 111.437874 128.951904 189.574341 206.425400 176.216797 159.470261 206.261703 84.887726 120.414818 167.695679 115.188660 112.303970 162.154617 182.395508 117.903900 233.899277 238.401474 120.862457 68.917862 91.133850 120.526413 76.229774 
conv_86_param_0 343.134552 185.253555 178.270050 275.379578 254.124084 178.637360 220.794571 397.396484 230.786163 277.583771 233.269958 223.258362 371.035675 292.571442 210.263535 329.652710 217.108521 245.605286 330.910950 283.174744 260.617249 117.160362 306.716980 117.477867 210.604050 162.967422 120.081253 195.855423 288.835083 180.999298 137.253830 197.491272 496.366425 345.183807 184.073608 141.203033 126.382896 264.998474 315.076935 189.160721 199.613205 338.446320 189.989777 228.957748 394.982544 330.700562 283.174744 417.154785 260.747864 165.666245 303.495911 250.092300 361.244446 269.949158 137.326294 190.267746 117.266006 372.363647 166.089401 215.489639 290.285706 270.370056 208.744781 119.970482 
conv_87_param_0 292.736084 335.607727 
convdw_214_param_0 66.114899 236.450912 189.989777 144.097504 113.777779 144.097504 107.035393 55.576069 37.651417 103.623901 198.546570 192.663696 128.888000 60.375114 86.353256 150.867752 113.380997 94.856308 35.129120 100.268311 117.160362 221.358292 414.165619 65.614532 373.969818 100.812401 137.981964 92.495018 117.160362 173.977264 167.156815 107.834160 127.623161 298.104309 122.802643 94.101303 151.218597 83.044701 233.479355 113.579041 157.252716 38.271923 186.984909 91.841805 123.973305 135.396149 67.910179 202.882996 178.270050 53.473682 137.109116 325.119995 102.158684 237.313873 66.452736 77.826454 310.562378 116.739677 746.865784 94.856308 289.317017 169.443649 111.437874 143.620102 63.376217 203.677368 304.383850 44.999310 84.556564 173.166443 197.491272 73.598190 91.518646 53.561779 157.729538 104.456223 112.013779 49.335358 138.496277 438.240936 221.924911 175.030960 508.000000 159.862320 126.876099 174.210312 184.990036 122.340546 258.802002 440.467407 143.382584 234.743683 156.495789 187.119431 122.571159 194.682632 274.507660 83.847839 140.820786 251.543518 155.096008 61.809887 89.688278 70.106735 173.281815 117.266006 98.446632 28.797165 125.046150 274.942932 201.312698 135.678665 398.614563 455.111115 146.946899 407.993713 182.780045 423.609131 527.845764 94.306023 158.595123 252.031006 292.242706 273.785278 237.747711 153.448975 365.303375 485.253723 
conv_88_param_0 279.673126 234.109818 406.399994 348.420624 286.291687 268.002075 217.653549 277.880341 339.772705 261.009521 240.384476 275.379578 322.299866 276.550781 280.729614 281.794159 338.446320 242.626862 371.300507 244.451126 424.300171 358.505859 323.100616 389.365265 416.153595 318.549896 242.175049 360.243774 377.497833 344.498016 263.655334 307.442078 373.164978 208.744781 316.611084 428.494232 226.170441 370.771210 270.651398 193.956741 448.441376 328.819214 128.063019 330.071075 397.396484 194.391632 336.911926 304.028046 490.284637 306.716980 401.692657 404.189575 429.201324 359.248627 237.965240 455.111115 325.323334 351.481079 299.132843 381.652252 365.560089 225.777771 348.654144 271.357330 
convdw_215_param_0 189.989777 76.185120 153.087692 161.249847 166.408188 138.422562 57.850533 140.973434 183.553986 92.036804 75.918274 142.128967 67.522324 236.021774 52.270096 156.968018 123.385201 178.270050 98.745636 245.373581 84.337227 191.952774 95.413063 242.400742 169.223160 130.113052 239.278748 229.159470 181.504532 121.087524 104.372391 193.667908 127.498039 113.380997 165.877548 134.139252 188.066528 231.196442 121.540184 93.559715 139.163193 130.635864 62.643547 98.001511 54.687973 144.257355 139.536484 152.817856 269.949158 90.815643 80.128159 138.422562 163.376877 218.384552 105.472832 137.253830 120.974884 174.913254 125.287094 167.264313 87.515480 124.926033 126.752434 167.156815 
conv_89_param_0 109.192276 334.743896 248.895691 262.988892 241.949768 296.913239 368.407928 138.422562 172.591904 408.313965 236.666061 293.065918 235.807800 246.770401 306.897949 154.268097 309.822510 333.242798 310.562378 198.243896 299.304962 224.220688 203.517990 253.258026 316.226135 363.262573 279.222748 243.992493 344.726318 229.969940 279.823547 308.170624 203.358871 347.026031 266.082855 266.491791 228.957748 264.190948 260.617249 334.528625 243.307770 386.759857 341.781860 306.536255 185.782852 293.562073 116.949638 264.190948 266.082855 189.712616 348.187408 159.372543 163.069595 318.745087 195.120773 225.386475 154.268097 109.375946 277.880341 340.217133 350.533691 254.497070 179.872757 172.591904 
conv_90_param_0 256.252228 271.924713 
convdw_216_param_0 233.269958 702.962158 85.165688 47.706532 439.351349 103.706535 32.206043 148.541412 291.260925 91.776993 84.887726 51.894653 572.583374 104.624298 56.789520 82.570160 84.064644 109.745148 41.076439 31.291626 582.195862 88.347824 35.688255 42.554974 31.827703 96.047264 110.773422 95.483116 478.557495 72.008858 43.234043 451.163910 64.926613 82.308861 105.644188 279.372711 80.525078 133.314194 101.204666 87.810936 205.447083 359.496887 226.564453 21.776289 40.387577 60.883896 414.495605 508.000000 83.847839 280.729614 36.778282 425.689026 880.189514 158.113068 124.328873 31.503876 149.566422 206.918060 156.873337 103.706535 67.138878 28.519299 85.896965 101.599998 63.130096 86.988632 38.339622 103.376785 192.806519 85.333336 367.107971 151.836548 129.143997 489.362183 73.932915 265.810944 74.228310 237.313873 26.156075 100.968941 96.546402 45.249825 110.210167 88.891319 205.609482 57.138840 125.407906 29.664234 89.564735 102.561516 23.389929 97.854027 77.225655 178.637360 160.751541 114.883392 282.406067 169.886353 155.466827 141.049896 101.838684 104.121696 36.653889 66.014214 115.907310 110.773422 88.468025 455.908844 15.178338 119.529411 515.041565 68.446320 104.205132 117.160362 102.158684 76.860519 40.563942 86.410629 452.734558 82.570160 158.691879 86.295952 583.501953 320.118164 241.724915 133.863098 93.965317 90.060944 106.771759 230.991119 140.516479 84.998695 19.848597 67.382385 101.998428 109.009224 315.076935 606.991821 136.820618 82.049210 38.137245 117.371841 160.751541 388.783264 231.402130 386.759857 72.815231 137.253830 122.686790 514.532166 225.386475 44.659340 120.750229 1233.413208 35.454742 89.196159 63.191448 367.886841 237.747711 63.252918 166.514725 123.973305 38.047981 317.190247 99.046455 25.905975 117.584084 129.788422 227.555557 304.919098 229.361557 149.738632 20.708281 29.106535 168.020676 17.376804 329.027191 222.494446 77.873055 111.342468 37.092983 252.031006 119.529411 693.589355 65.980721 34.660980 126.752434 37.477810 330.910950 260.356354 98.297806 132.095474 111.247223 182.267700 198.243896 132.095474 97.706985 155.652908 101.520683 70.832245 117.477867 62.946758 42.722733 79.008507 247.004745 137.326294 112.013779 190.267746 55.105083 82.049210 238.839310 48.453056 144.578094 34.884121 86.756508 297.252563 26.156075 676.013000 127.560570 162.763458 120.974884 240.829636 127.435570 71.730835 20.603294 237.313873 53.167622 123.502373 71.376511 27.979345 99.273285 65.449425 706.302795 272.209320 79.980316 27.275167 87.929680 78.864769 134.486038 226.959854 243.307770 110.023689 462.392883 206.589355 132.769775 109.560234 436.402679 54.642017 423.954346 119.749542 62.045803 122.686790 230.173447 330.280640 146.781036 519.412903 
conv_91_param_0 658.054382 620.384033 938.128052 668.197815 781.655884 1058.915039 960.650024 1132.698975 768.378113 852.773743 1070.904785 569.761230 768.946045 707.744202 683.114929 591.799744 650.239990 524.387085 915.025513 523.068909 763.864929 729.070801 836.321533 568.515869 735.253723 814.071960 692.665771 951.860962 292.242706 859.821472 850.681946 850.681946 1005.201904 729.070801 893.800659 546.420166 652.278381 815.987427 805.874512 830.314453 1049.832520 763.304504 697.776001 818.555481 488.443207 718.001404 643.403809 595.185364 371.565704 586.462219 619.276184 630.153870 722.488892 570.073425 950.122375 692.665771 650.646667 553.395752 671.215454 888.457703 1145.166748 771.798218 685.364929 577.991089 
convdw_217_param_0 103.623901 124.926033 96.618126 138.128525 103.955238 144.819595 128.696686 171.567276 146.698257 88.227951 103.541405 156.120041 172.706512 85.333336 177.661209 203.677368 148.202850 141.664490 108.193008 44.143925 229.766785 158.788773 139.911774 73.390518 104.288696 155.932861 89.812157 94.649200 88.468025 149.052155 91.841805 174.210312 164.617722 98.372162 135.607925 68.302521 182.523514 137.908798 128.569458 156.307693 106.248367 117.160362 106.248367 191.811203 88.048744 81.739784 102.804741 95.905602 121.540184 125.650238 163.788406 159.372543 163.994949 129.723694 185.121704 98.223564 159.372543 76.229774 77.317482 142.440308 68.087959 201.624802 165.455475 142.831406 
conv_92_param_0 199.002289 252.520386 303.850464 319.528259 273.929443 162.255768 403.562439 419.171631 245.837433 300.862915 290.935120 346.563629 307.623901 243.535583 287.876038 302.965637 374.778107 321.304504 310.192017 251.787033 444.228851 323.502502 224.027557 169.775452 324.714111 264.594086 420.187408 373.701141 184.334518 315.076935 337.567810 298.789215 248.895691 307.805908 238.620178 346.332886 293.893799 294.893433 121.200371 384.189056 358.012390 278.475372 300.862915 315.267883 234.109818 313.368683 348.654144 362.755920 298.104309 418.834137 342.908386 326.343781 212.844513 272.494507 304.383850 342.682465 298.789215 274.942932 305.456268 329.235443 280.426941 287.716827 220.233704 352.672546 
conv_93_param_0 317.771545 288.995544 
conv_0 129.363342 
conv_1 20.366392 
conv_2 4.814043 
conv_3 13.063988 
conv_4 396.798187 
conv_5 7.013888 
conv_6 16.615068 
conv_7 39.366611 
conv_8 59.254814 
conv_9 76.956833 
conv_10 27.527687 
conv_11 74.238541 
conv_12 31.715342 
conv_13 55.029102 
conv_14 108.799164 
conv_15 110.226967 
conv_16 52.525787 
conv_17 56.780930 
conv_18 55.029102 
conv_19 17.713266 
conv_20 35.523201 
conv_21 42.104134 
conv_22 38.472134 
conv_23 42.442688 
conv_24 70.636124 
conv_25 49.076332 
conv_26 35.614399 
conv_27 42.461792 
conv_28 42.442688 
conv_29 17.777956 
conv_30 24.218174 
conv_31 35.278427 
conv_32 19.335033 
conv_33 16.029510 
conv_34 24.893042 
convdw_210 13.353683 
conv_35 18.797123 
conv_36 16.665148 
conv_37 113.790802 
conv_38 17.732548 
conv_39 42.104134 
conv_40 42.433590 
conv_41 88.892143 
conv_42 49.554573 
conv_43 30.260231 
conv_44 85.359879 
conv_45 42.433590 
conv_46 17.709881 
conv_47 42.273487 
conv_48 74.238541 
conv_49 35.520847 
conv_50 119.541634 
conv_51 42.483742 
conv_52 34.822773 
conv_53 42.444366 
conv_54 35.520847 
conv_55 10.611332 
conv_56 28.314877 
conv_57 24.909008 
conv_58 56.446117 
conv_59 38.770565 
conv_60 131.532867 
conv_61 49.863686 
conv_62 37.330830 
conv_63 46.016506 
conv_64 38.770565 
conv_65 10.417827 
conv_66 21.202900 
conv_67 28.365572 
conv_68 42.701729 
conv_69 53.113384 
conv_70 31.999702 
conv_71 17.815088 
convdw_211 18.452145 
conv_72 20.915062 
conv_73 16.742601 
conv_74 28.152664 
conv_75 21.081144 
conv_76 24.909008 
conv_77 17.556753 
conv_78 21.169956 
conv_79 28.365572 
conv_80 14.081107 
conv_81 24.350233 
conv_82 21.189220 
conv_83 21.311878 
conv_84 42.521286 
convdw_212 24.909008 
conv_85 21.137321 
convdw_213 42.346649 
conv_86 31.862543 
conv_87 35.395531 
convdw_214 28.365572 
conv_88 24.513863 
convdw_215 38.992344 
conv_89 17.679760 
conv_90 24.787022 
convdw_216 21.189220 
conv_91 24.807480 
convdw_217 46.118477 
conv_92 31.863186 
conv_93 31.829906 
